/**
  ******************************************************************************
  * @file    cnnmodel_data_params.c
  * @author  AST Embedded Analytics Research Platform
  * @date    Mon May 13 21:15:35 2024
  * @brief   AI Tool Automatic Code Generator for Embedded NN computing
  ******************************************************************************
  * Copyright (c) 2024 STMicroelectronics.
  * All rights reserved.
  *
  * This software is licensed under terms that can be found in the LICENSE file
  * in the root directory of this software component.
  * If no LICENSE file comes with this software, it is provided AS-IS.
  ******************************************************************************
  */

#include "cnnmodel_data_params.h"


/**  Activations Section  ****************************************************/
ai_handle g_cnnmodel_activations_table[1 + 2] = {
  AI_HANDLE_PTR(AI_MAGIC_MARKER),
  AI_HANDLE_PTR(NULL),
  AI_HANDLE_PTR(AI_MAGIC_MARKER),
};




/**  Weights Section  ********************************************************/
AI_ALIGNED(32)
const ai_u64 s_cnnmodel_weights_array_u64[46275] = {
  0xbd9b950bbc66a396U, 0xbd7d7bedbe34d574U, 0x3e4a4dac3e8e9194U, 0xbdf8ef2ebe574feeU,
  0x3e69ac76bec19498U, 0x3e634bd93da020e7U, 0xbe8c0bd73c75d3a6U, 0xbe979b52be0981c8U,
  0xbe6edfbd3e0d436aU, 0x3e13b3e8bd2d3de8U, 0xbc6fa5c43db1678bU, 0xbb4b6ee2bf329626U,
  0x3eadddbbbda1c785U, 0x3e2781f63e1c79d2U, 0x3dde7f6e3e42836cU, 0x3d8f82973e186fceU,
  0xbb922287bf67c668U, 0xbeb9624ebe8bd731U, 0x3d56e08abd562316U, 0x3ca14d78bdfd3ee6U,
  0xbd698ea9bd2648ffU, 0x3d3e9ce6bd71d868U, 0xbdafa0ef3e526573U, 0x3e21e413beaaafbaU,
  0x3cf74f5f3da579d3U, 0xbea2240ebe522aefU, 0xbe6acd963ece9df6U, 0xbe9ca27abdc88bb1U,
  0xbbc1d517bd364af1U, 0xbd0dbe113e71fa47U, 0xbc58ebc23d0135ebU, 0xbdf8ca70bf4ef815U,
  0x3ecf166e3dbad697U, 0x3aad4218bdf8845eU, 0x3e23b715bdd9fc48U, 0xbcc97a783defa349U,
  0xbde7d0de3c61ceb4U, 0x3cacd599bd0c430cU, 0x3e089a7a3d3dcd0dU, 0xbdf4e004be04e080U,
  0x3d74c2dabe12591eU, 0x3eb7f4533f419390U, 0x3c886f523c2460b5U, 0x3c6ebb613d2caf5cU,
  0x3e8ff167be247a60U, 0x3d0c4e64bcce19abU, 0xbe2264e7be36fe1bU, 0x3d8da832be577a6cU,
  0x3ea2c6c0bd9abb04U, 0x3d589da6bf64e1c0U, 0xbd81c66dbd6cce85U, 0x3c33b2b23d1b5ec2U,
  0x3e32b4063e09c9b3U, 0x3e8a43083e56245cU, 0xbe7d3e30bdd7544bU, 0x3e3e243e3d5e962aU,
  0xbd3061763dd9414bU, 0xbec353cabe926f0eU, 0xbeb0f67ebed9566dU, 0xbdda1260bcd9bb47U,
  0x3e1ae5603e16a51aU, 0xbde6ddefbe1b99efU, 0xbf60d5a8bed3a9c2U, 0xbe1f2588be6639c4U,
  0x3df66a55bd5f74d9U, 0x3dee3ab83d10f65fU, 0x3e17480cbe977393U, 0xbf7afe383e672e1cU,
  0x3e06fc0abf3fe886U, 0x3d3e66ec3ca9da12U, 0xbd7620d7bc4d71ebU, 0x3d5c6ce93db19650U,
  0xbe2e6e843d01ac30U, 0xbe90672abdc6cf53U, 0xbdaccdca3c72e6f1U, 0x3d9e1c653e92e521U,
  0xbe3d4ab0bdcd5c4dU, 0xbdd80ae93d0ba47aU, 0x3e54902d3e90e3ddU, 0xbe202036be5bd101U,
  0x3d0a77cdbcc0dddcU, 0x3dfbff5cbe9fe166U, 0xbe48b1363e7d877fU, 0xbd8f59693e8c0047U,
  0xbe07fb79be901d06U, 0x3eb80290bd84abbdU, 0xbe2c52d1bec299cfU, 0xbdb0dc76bdb3cab6U,
  0xbdbe92c8bdff4303U, 0xbdb5a0b23e3edcf0U, 0x3c86f9c53d7305e9U, 0xbcf90c26be7d3d83U,
  0x3e4b1e10bd96c86aU, 0x3d830940be01e7e5U, 0xbdb72f69be23761dU, 0xbf7127303daaef13U,
  0x3dddb0f23e461801U, 0x3e921f19be5e6e92U, 0xbe5800013e1fe751U, 0xbe213bfcbc40c707U,
  0xbd39e244bd93737bU, 0x3e03ee41bbe5f6a7U, 0xbe9de1a7be1f573eU, 0xbe283a293dbf185fU,
  0x3e0c8ec3bf083e84U, 0xbf1aee873d58ebd9U, 0xbdb2525bbd0a7581U, 0x3dc0972f3e3e0013U,
  0x3d9cb0603e67a72dU, 0xbedefd91be3e6be5U, 0xbf0f41c83e0be3a2U, 0xbccfbe4c3e173d5bU,
  0x3dfb4cedbd6c7dacU, 0xbdba48643c054912U, 0xbd9513f33e02dea9U, 0x3e496d30bea15b91U,
  0xbe953624bf1e422cU, 0xbeba4874bdbdce75U, 0xbe1318c73eae9094U, 0xbdf8d0b53dae2912U,
  0x3ecbade83cc5b126U, 0xbd7ada9e3e09833cU, 0xbd88516ebde22ecaU, 0x3e87eed13c4f36cfU,
  0x3e9ff141baddcee1U, 0x3d2a2e09beb8fd90U, 0x3d60e997bee2d9ebU, 0xbdb7be75bc9bdb64U,
  0x3d923bbcbd912e1bU, 0x3d5c50e0bf2fd89fU, 0xbe13955b3ea2b333U, 0xbeb02612bf05f449U,
  0x3d035ba13b9208dbU, 0xbd7519d1be0d3558U, 0x3e0840283e38dfdcU, 0x3d608a48bce070ceU,
  0xbe2d90443ed0aab6U, 0xbd2192fabe955fbdU, 0x3e26e1a43e89de0dU, 0xbd372646be4daae9U,
  0xbeee299cbeb23979U, 0x3c08fcbebd61787aU, 0x3e8d623abe2e1c20U, 0xbe1c9ff3be4b8b9eU,
  0xbf1259c3bdbbc9a4U, 0x3c8e8ea23e6ce473U, 0xbec82b903e050ec1U, 0xbdebc40bbd4eb8ddU,
  0xbe174ea23d08264cU, 0xbe3fe5503e453ca3U, 0xbe5361733df64539U, 0xbe91cc70bdf13001U,
  0x3d9b205f3e0d639fU, 0xbeea5fa13db142dbU, 0x3dbdf27fbe62e032U, 0xbf5b5200bdd467f3U,
  0x3ce90a92bd2bc42dU, 0x3e06c81b3d81290eU, 0x3e15b84cbecde5e5U, 0xbe4498d3bcc9d40eU,
  0xbddc72dc3d179554U, 0xbd4b4ed63e86502cU, 0xbf0b5fcf3dac05d7U, 0xbe2268453d5d41aeU,
  0x3d6875d93e943d41U, 0x3d22d2d43d800a38U, 0x3d0fee1fbe52f906U, 0xbea606e03ec04a35U,
  0xbe53ef8abe2c5527U, 0x3e6b2c363e9393ceU, 0xbe242625bbaf3966U, 0xbe0d4645bd9f71c4U,
  0xbf2a86353d8a61e4U, 0x3e66f444bdaf125dU, 0xbb28d2e7bf25f5b8U, 0xbe0d208b3e4917e2U,
  0xbd28a79bbd8214dbU, 0x3c636b00bd9c653bU, 0x3e6137683e2de16aU, 0xbd628355bca2217cU,
  0x3e88f1803de8fbe9U, 0xbe55f1ac3d9a97c0U, 0x3d9fd9f43d6d73a6U, 0xbdbc2a143e2519a4U,
  0xbf29b4bfbd983957U, 0x3e8d783abe76bf67U, 0xbdcf4d57bebba6aeU, 0xbebf8c02bea68e01U,
  0xbd270628be248400U, 0x3d8d347a3e2d7258U, 0xbf033bad3df350ceU, 0xbe7253cdbe18dd62U,
  0x3d07c6263e5d37b5U, 0xbe23e3233e3418b8U, 0xbe0e2dadbe64d4ffU, 0xbd89e6a53db0b7b8U,
  0xbdbe3854bdd4f690U, 0xbeb00d8b3dc3f247U, 0x3d9c5367be33f130U, 0xbe8f19b0bd1dfc31U,
  0xbe85cb13bbe8ddbcU, 0x3ea8f1ecbe8e17d2U, 0xbe1a727f3f03ae2fU, 0xbca5bc2d3d53d594U,
  0xbdf05584bd19f121U, 0xbdb34748bf8153deU, 0x3e564ff6be18612dU, 0xbdccc79bbd12c022U,
  0x3c12c746beffebfeU, 0x3dcacb363ddcd808U, 0xbdd93973bd717346U, 0xbdaeb4f83e10bd03U,
  0x3d66fa8bbd9c29c5U, 0x3ef0eb2fbd095148U, 0xbd7e3db3bf02eee6U, 0xbe845452be583b62U,
  0x3c03dcb5bcd4bd84U, 0xbd7ecdb63dd0d15aU, 0xbd0d105cbd192b0eU, 0xbf7ea064bdce4791U,
  0xbbac3d6d3e966932U, 0xbe0e0d23beb62818U, 0x3e56ceb0bd81a924U, 0x3e5e9d403d32d1c6U,
  0x3db6b9cbbd8248daU, 0xbe89c6063d538444U, 0xbbb28c763c873098U, 0x3e275a963e525e56U,
  0x3e61ae7dbbc56e2bU, 0x3dd7c0443e09ec41U, 0xbe8d29fb3e4f3da3U, 0x3e44a0e1beaf2a13U,
  0x3d07e6223ef15804U, 0xbedc9bd1be9123f1U, 0x3c0719b5bdf696e0U, 0xbdce068f3c741008U,
  0xbd00a9c13dba03a6U, 0x3e9c7867bf3aa09bU, 0x3dbeb6dd3c9bc301U, 0xbda676b5bd7b2f3dU,
  0xbf2a1225bf1080b5U, 0xbd8bfef43e7e93a6U, 0x3d8d9959be2249b7U, 0x3d60ff473d9d19caU,
  0xbdcb2e8c3d6384b9U, 0xbc68800c3bc4c671U, 0x3e9fa9febd85b2aeU, 0x3e0c080d3d6afec8U,
  0x3c3c38b93e94f380U, 0xba9648b5be8aeb71U, 0x3dc2637cbd8106aaU, 0x3c5c7e86be6c4899U,
  0x3e32c46abef1aa2eU, 0xbe7f40e8be667d01U, 0x3d43842cbebfc75dU, 0x3d92e9fcbebcc167U,
  0x3e57b852bf3605a4U, 0x3e3c342bbd894c13U, 0xbdd358ce3e54d70fU, 0x3dc90695bea5f108U,
  0x3dd526163da30a3dU, 0xbd066947bd541609U, 0xbe76e602be3c0717U, 0xbef95bafbe40eb20U,
  0x3e3daaa5be0a7664U, 0xbe1a75653e7e4f5cU, 0xbe9359c43e3b7d2eU, 0x3def45ef3e12ed7bU,
  0x3d1da07cbc81fc48U, 0xbe94ca66bde29bd1U, 0x3cd92fcfbeb672e7U, 0xbe26a054bdbdfb14U,
  0x3e2621dbbd8874ceU, 0xbc92c887bd8fc700U, 0x3e822eaabec5382dU, 0xbef7f2f43dc0133aU,
  0xbcbd9dd7bd96284fU, 0xbe01ce13bd51a94eU, 0xbdbe57033e5dd118U, 0xbdd2ec8e3edf0c13U,
  0xbc415b3b3e790e45U, 0xbde64798be2fcd3bU, 0x3ecf7da23e33459dU, 0xbce0eca53e47ac00U,
  0x3cd8bdca3d264171U, 0xbef8cd45bea01a1eU, 0x3df330d93e772934U, 0xbde828193eaf7439U,
  0xbc9d73b1be933ebbU, 0x3e3c5331bd6ab4c6U, 0x3dfdd470bddccdf1U, 0xbe5a9701be5f2d5bU,
  0x3d0b612d3e6cb8e3U, 0x3d2f7e93bf7e1991U, 0xbe23f0ff3d9a8ba4U, 0x3d3cb4efbc821946U,
  0x3d431242bd4e8fd0U, 0x3e0e41903de096c7U, 0xbe73a0f4be94d577U, 0x3df763493dd15869U,
  0xbee108b6bb77ac77U, 0xbe2d74573d812d10U, 0x3bdc48033e629319U, 0x3de618203c61ccaaU,
  0xbd99ac53bea5a44dU, 0x3e98c797be4f8625U, 0xbb07898bbe882f20U, 0xbefccaffbee9b61dU,
  0x3cc3cd46bdc389cdU, 0x3e87ee9bbf008557U, 0xbe7b71fc3e276701U, 0x3c9b25683d16b826U,
  0x3e0755553da40d0fU, 0x3e2be9d7bd98b28eU, 0x39f3d75fbe18fadcU, 0x3e97cccfbf04ca47U,
  0x3cc8a6443e88911bU, 0xbe8ea5adbe1554beU, 0xbd9545f33c88fe12U, 0xbd0986ebbd02b2c5U,
  0xbd8889463dfb355fU, 0xbf0759ba3d0d594cU, 0x3e206410bdd6c5c5U, 0xbe696112be9a9f2cU,
  0xbeaf968e3d9ad581U, 0xbf35fe073e117766U, 0x3dc6e8313b672ec8U, 0xbddf64cf3c83f745U,
  0x3e2e51cf3d77f327U, 0x3e135f403dde6834U, 0x3e627cd2bf041d1dU, 0xbea321c2bebf70feU,
  0x3d8c32613d389285U, 0x3e7e30dc3e934776U, 0x3d07b4d0bb9b6966U, 0xbd3f46a03cd511daU,
  0x3e4a53a73db4f2e5U, 0x3da42b263e1ef241U, 0x3e7b459ebebec70aU, 0x3e442ef8bdecfc25U,
  0xbe196172be15df4dU, 0x3e590543bde4f8beU, 0x3de6498dbf213749U, 0x3dc14e863ce328a5U,
  0xbe051a09bea07277U, 0xbd2526d5bf3a5f97U, 0x3c4140d83de3a523U, 0xbea36f5f3dcc6c89U,
  0xbb9471a1be88a098U, 0x3e48fb083e60ed51U, 0xbe9806d93ce7e7f3U, 0xbc9a16f8bd3ce79dU,
  0x3ccba4dc3cfd54c3U, 0xbe74287c3d17b1b8U, 0x3cd6c6d2bf1a1b6fU, 0xbe2d7caabf79768dU,
  0xbea46f0fbd613984U, 0x3d9790673d6e627dU, 0x3dfc18c73e046cdbU, 0x3e26a3933d60dc6eU,
  0xbed3bf323daa0fe3U, 0xbdb2b40b3e42f74aU, 0xbe434e363e373c24U, 0x3e28580fbede31baU,
  0x3e41a8903dedfc2fU, 0x3c1781393ebf1afeU, 0xbe0b8252be87fb0eU, 0xbd8111d53dcb061bU,
  0x3e999e0fbebca17fU, 0xbe97cdc7bd64c15bU, 0x3d9b0146be42174cU, 0xbc89ed7f3e2c23d2U,
  0x3d4f39bfbd12b1d1U, 0x3dd3fd8dbe8d992fU, 0x3ea4ad21bdd53a87U, 0xbe6736733eb87d55U,
  0xbdaafd1fbcb3cfc6U, 0x3dcb08c4be250cebU, 0x3e0e5bb7bdce5324U, 0x3c70df4e3e24cac5U,
  0xbeb955053e9647edU, 0xbecb99713d9f388cU, 0xbec1bc373e920529U, 0xbf04f504bdc21dc9U,
  0xbd4d9f1fbf350d9aU, 0xbdb74beb3e2f4564U, 0xbde420d8bd75bcceU, 0x3d609d513e3e1773U,
  0x3d970229be103bb9U, 0xbda377613caa2c8eU, 0xbb7519cf3ec3558dU, 0xbd1c369d3e703240U,
  0xbe016311bbdab795U, 0x3d83b8c2bd84b464U, 0x3c6bd304bab55bf0U, 0x3e15e8cebe15697bU,
  0xbd0ee0febee0567fU, 0x3c78c5a4beae0baeU, 0xbf77b1abbd075163U, 0x3c325ba5bd8665c8U,
  0x3de139e3be208ca6U, 0xbe3e8bb63c52a485U, 0xbf109d1ebe0a9cfcU, 0xbd8918ca3dafb891U,
  0xbd8a890fbd89e9feU, 0xbc7797abbf341483U, 0x3d9baaa63da8b351U, 0xbdbded243e179a48U,
  0x3c2d7d39bd4130cfU, 0xbebc200abc89b6feU, 0xbf56ba4c3c8fd3b2U, 0xbd5e8842be4224e1U,
  0xbeb8b7983c0e7240U, 0x3dc5bc2cbe00ab8dU, 0x3d5f9be03eca587cU, 0xbf06c3583d1d2fb7U,
  0xbe32edb33dde64a4U, 0x3cf3c2c23e6c1795U, 0xbde54b6f3e90f64dU, 0xbda40253bdab6e46U,
  0xbf48b62bbd96d972U, 0x3d9d7d553db1a207U, 0x3e2628aebe8b69c7U, 0xbd9e8346bdd33fd8U,
  0x3d5555c2be9bbd57U, 0x3d5b9fb3bc00d65bU, 0x3e1c22be3cccb906U, 0xbee204b5be1a2017U,
  0x3e1f014b3e503b7cU, 0x3d3bf1e4bebb22a9U, 0x3dcaff693e225643U, 0xbd66fee63d4a5947U,
  0xbdaae4b4bbca64b3U, 0x3eaee505bd183a96U, 0xbdc95097bde175f6U, 0xbd81071d3d5ac424U,
  0xbd16f1b83ed2841aU, 0xbd46ee82bd3e27d4U, 0xbcd90d8ebb2d3a40U, 0xbe009bd03d9147f8U,
  0xbcb24804bccd3765U, 0x3d3efb8cbd68d573U, 0xbe4fbd2cbf200226U, 0xbbcb1cc53cfcd5a8U,
  0xbe869334beda5b5dU, 0xbe1668c93e5d8eafU, 0xbc2954b33ea8049cU, 0xbec717f5be25fcbeU,
  0x3e2efa2bbb5bd698U, 0x3db4d2ed3dff399dU, 0xbe0a3dac3e1c26b7U, 0x3eb37bfd3ebb2970U,
  0xbdb98d9b3e1b9c08U, 0x3e546dfc3e1cb0c3U, 0x3e7e33833d0592acU, 0x3e92dccc3e6e42d7U,
  0xbde0a768bcf1475cU, 0x3dcc5478bda64446U, 0x3e7a8d883e92e403U, 0xbf0011473de8706aU,
  0x3d10eb933db3ad72U, 0x3b508eadbdd44075U, 0x3dd3cb0f3dbd6bedU, 0xbdb6e0a03deda79aU,
  0xbed0b1013dd5ff8fU, 0xbe1f0e27be547ecfU, 0xbd9748103e79bcc3U, 0xbf899e283e0e3738U,
  0xbe37b48dbe0707bdU, 0x3c0c1661bd9cd503U, 0xbd3db447bceeff28U, 0xbdfaf44639094c11U,
  0xbc15b9253e4ff8cbU, 0x3b9bd6b6be5f8292U, 0xbf5e82663e91f91cU, 0xbead38583cf1e964U,
  0xbe5ab60c3d565edfU, 0xbde815533e282e7eU, 0xbd207276bd4f618cU, 0xbd26a02e3e9b009eU,
  0x3e8778c63ebaf6deU, 0xbe21f5b9be19eaedU, 0xbdf9924c3bc81746U, 0x3e4bf7f0bea41cd3U,
  0xbe99c594be1e2155U, 0xbde5265b3ecbb63aU, 0xbdf8cffdbeb98af3U, 0xbb050e783da2b4c3U,
  0xbebe7428bccabdc7U, 0xbe64b9ae3e3cadeeU, 0x3ea1a23bbe6d266bU, 0xbea1dc3a3e1363a9U,
  0x3ec2f8aabe557243U, 0x3cf909e33da95943U, 0x3da04c1ebde509baU, 0xbe9f2014be187521U,
  0xbe8f4f12be78537fU, 0x3ea744f83e5b6a77U, 0x3c9cb09dbe19d528U, 0xbe92d86b3e8c7f86U,
  0xbd2873f83dd403bdU, 0xbe31494bbea44a64U, 0xbe361644bed1c7daU, 0xbcf40c7ebdd67dbfU,
  0x3ec2e822be81ecb5U, 0xbddd5e933d43d3a6U, 0xbe92a44bbeaed661U, 0x3d46bf17be8534adU,
  0x3e7629583cb357c3U, 0x3f0050afbe1fe67dU, 0xbefcd088be223953U, 0xbdd4c5a3be979acdU,
  0x3fce54ba3f2ce692U, 0x4092475340be236fU, 0x3f37dd034005794bU, 0x3f7b807040cf1f73U,
  0x4019dac74017976eU, 0x4019459c3fba4fbeU, 0x404a9f17403f3358U, 0x406c5fd83ff1479fU,
  0x4040ff8d4044e4a8U, 0x40cc32b73f848c5eU, 0x40167615405e8c46U, 0x40c5c1b040335c10U,
  0x3eee63914042a593U, 0x3fb284ff3ee39992U, 0x401a0eb24070dd56U, 0x40cfd2ed4011da55U,
  0x409314904046b1e9U, 0x3f4803783f8080b2U, 0x3f84652640b85f0fU, 0x40b0feed3f5b4beeU,
  0x406c69373fdfda22U, 0x4081ac7340c74b67U, 0x409d837140324a58U, 0x3fe7546b409abf67U,
  0x3f9a416b3fa408ecU, 0x402f94cb3fc06570U, 0x40ae74f240fad80eU, 0x3f6c27e2402e6ae6U,
  0x40306dc840072643U, 0x3f0a817741100dc5U, 0x407de5cc3fad6b19U, 0x408b64ab40d3f4dfU,
  0xbf5ec106beffe150U, 0xbf1b7e9cbf7ade83U, 0xbd19c088bf7dde04U, 0xbf3581b8bf0144b0U,
  0xbfc21e55bfb2e916U, 0xbeb4d939bf2ea9ffU, 0xbf12d7a6bf27a146U, 0xbf8516d2bf980e2dU,
  0xbf08b1b4bf1180ecU, 0xbf24a437bf283863U, 0xbf63a562bf628fb0U, 0xbee308e6bf19d3c8U,
  0xbf017675bf3fefa0U, 0xbf7ecdbebd9e1305U, 0xbf93ed89bf231273U, 0xbf5a0245beaa0b08U,
  0xbf3e9644bf024918U, 0xbf33cf0abf4e7b28U, 0xbe68196bbf957023U, 0xbf5372babf11f648U,
  0xbf646c71bf92ddb0U, 0xbf30e944bf4a2c3bU, 0xbf643ce6be63fde1U, 0xbf8ea54dbf846a2cU,
  0xbf127606be58a085U, 0xbf598648be2ffbe8U, 0xbfc126d2bf2f1abdU, 0xbf1ae003bfb0b519U,
  0xbf2337e2bf4bb6f2U, 0xbecf70afbf6b22b1U, 0xbf0064b4bda3abd8U, 0xbf87fcffbfb508ffU,
  0xbce2a2433e4bf870U, 0xbdedf72dbbb54e9cU, 0x3d9ea4c93ea72478U, 0x3bb54e9cbea72478U,
  0x3bb54e9c3ce2a243U, 0xbd4bf870bd354e9cU, 0xbe134fdf3e2fa427U, 0x3e0da56abc87faf5U,
  0xbd9ea4c9be244f3eU, 0x3d62a2433d1ea4c9U, 0xbdf94c173df94c17U, 0x3e2fa427bda9f9b3U,
  0x3e0da56abedfcd09U, 0xbe1ea4c93d1ea4c9U, 0x3c87faf5be9bcf8eU, 0x3e51a2e5bd07faf5U,
  0xbe5cf7cfbd794c17U, 0x3e684cb83ec378c1U, 0x3e6df72dbdb54e9cU, 0x3d07faf53dd74d5aU,
  0xbdc0a386bd62a243U, 0xbe0da56a3ce2a243U, 0xbdcbf87000000000U, 0x3e8525bb3ce2a243U,
  0x3d1ea4c9bdcbf870U, 0x3d07faf53da9f9b3U, 0xbd9ea4c9bcb54e9cU, 0x3e51a2e53d62a243U,
  0xbd4bf870bd934fdfU, 0x3d1ea4c93e825080U, 0x3e354e9cbd354e9cU, 0xbefef68c3d07faf5U,
  0x3d934fdf3e134fdfU, 0xbd62a2433df94c17U, 0xbcb54e9c3e574d5aU, 0xbd87faf53d1ea4c9U,
  0xbdf94c17bdc0a386U, 0xbd87faf5bd4bf870U, 0x3e40a386be4bf870U, 0xbe9625193d1ea4c9U,
  0xbda9f9b3bde2a243U, 0xbdf94c173e134fdfU, 0xbe3af911bce2a243U, 0xbe7ef68c3e907aa5U,
  0x3e354e9c3e025080U, 0xbe51a2e5be2fa427U, 0x3c354e9c3e7ef68cU, 0x3d794c17bbb54e9cU,
  0x3d354e9cbce2a243U, 0x3e2fa4273d4bf870U, 0xbd07faf5bbb54e9cU, 0x3dc0a3863d794c17U,
  0x3e4bf870bdb54e9cU, 0x3e0da56abeafa427U, 0x3c87faf5bdc0a386U, 0xbd354e9c3e9bcf8eU,
  0x3dcbf870bd9ea4c9U, 0xbd87faf5bdd74d5aU, 0xbdedf72dbd354e9cU, 0x3c354e9cbd87faf5U,
  0x3e40a386bd1ea4c9U, 0x3dcbf8703e4bf870U, 0xbdcbf870bd934fdfU, 0x3dcbf870bdb54e9cU,
  0xbe134fdfbbb54e9cU, 0x3eb27962bd934fdfU, 0x3dcbf870be134fdfU, 0x3ea9f9b3bd934fdfU,
  0xbe684cb83e574d5aU, 0x3e0da56a3e7ef68cU, 0x3eafa4273d9ea4c9U, 0x3ef676dd3de2a243U,
  0x3e62a2433e684cb8U, 0xbee2a2433dedf72dU, 0x3c354e9c3c87faf5U, 0x3d354e9c3df94c17U,
  0x3d934fdfbd07faf5U, 0xbdb54e9cbc354e9cU, 0xbdc0a386bdc0a386U, 0xbef676ddbdb54e9cU,
  0x3ee84cb8be51a2e5U, 0xbe354e9c3d87faf5U, 0x3d1ea4c9be07faf5U, 0x3dcbf8703e40a386U,
  0xbe244f3ebe464dfbU, 0xbe73a1a2bdd74d5aU, 0xbe8da56a3e354e9cU, 0xbd62a2433ce2a243U,
  0x3c87faf53db54e9cU, 0x3c354e9cbd07faf5U, 0xbd354e9c3e7ef68cU, 0x3c354e9c3dedf72dU,
  0xbef3a1a23bb54e9cU, 0xbececdaa3e1ea4c9U, 0x3e244f3e3e2fa427U, 0xbdedf72d3d62a243U,
  0xbe51a2e5be684cb8U, 0x3e934fdf3e0da56aU, 0xbea17a03be73a1a2U, 0xbd62a243be0da56aU,
  0x3f134fdf3ea9f9b3U, 0x3d07faf5be3af911U, 0xbe62a2433d934fdfU, 0x3f178fb73e3af911U,
  0xbdc0a386be18fa54U, 0x3e1ea4c9be4bf870U, 0x3e07faf5bd9ea4c9U, 0x3de2a243be825080U,
  0xbdc0a3863ce2a243U, 0x3d4bf8703d794c17U, 0x3e62a243bed1a2e5U, 0x3f00e5e33e825080U,
  0xbd354e9c3ebdce4cU, 0xbe51a2e5bd934fdfU, 0xbde2a243beacceedU, 0x3f29f9b3bc354e9cU,
  0xbeb279623e1ea4c9U, 0x3e9625193dd74d5aU, 0x3e07faf5bd07faf5U, 0x3e51a2e53db54e9cU,
  0xbe07faf5bedfcd09U, 0xbe134fdf3d07faf5U, 0xbdb54e9c3f069058U, 0xbd07faf5bde2a243U,
  0xbe8525bb3e3af911U, 0xbe3af9113e73a1a2U, 0x3ed4781fbe1ea4c9U, 0x3ea44f3ebe0da56aU,
  0xbe51a2e5be354e9cU, 0x3e29f9b3be574d5aU, 0x3d354e9cbd1ea4c9U, 0xbdcbf8703d07faf5U,
  0xbe18fa54beb54e9cU, 0xbe1ea4c93db54e9cU, 0xbeacceedbdc0a386U, 0xbf244f3e3dedf72dU,
  0x3e134fdfbeafa427U, 0x3d9ea4c93d934fdfU, 0x3e07faf53ec64dfbU, 0xbea17a03beacceedU,
  0xbe62a243bea72478U, 0xbe4bf8703dc0a386U, 0xbdf94c173f0ad030U, 0x3d07faf5be464dfbU,
  0xbeda2294be07faf5U, 0xbbb54e9cbe684cb8U, 0x3c354e9c3f33e3ffU, 0x3edcf7cfbeb823d7U,
  0xbdb54e9cbe9bcf8eU, 0xbe574d5a3d87faf5U, 0xbed74d5abe29f9b3U, 0xbeb279623d794c17U,
  0x3d354e9c3d9ea4c9U, 0x3d9ea4c9be2fa427U, 0xbd62a243bf025080U, 0xbe684cb8be962519U,
  0xbd9ea4c9bbb54e9cU, 0xbc87faf5be025080U, 0x3d354e9c3c87faf5U, 0x3e7ef68cbe40a386U,
  0x3d41969fbd0a4704U, 0x3d41969f3dc1969fU, 0xbdb3c2b8bcdd3e6cU, 0x3c5d3e6cbc5d3e6cU,
  0x3e981aea3da5eed1U, 0xbd5d3e6cbd981aeaU, 0xbd41969f3d8a4704U, 0xbe488092be78e63aU,
  0x3e4f6a863e41969fU, 0xbbdd3e6c3d0a4704U, 0xbe035d103c5d3e6cU, 0x3e71fc46bea279d8U,
  0xbd0a47043ddd3e6cU, 0x3e3aacabbd981aeaU, 0x3d0a47043dc1969fU, 0xbe3aacab3e41969fU,
  0xbdb3c2b83dcf6a86U, 0xbdeb1253be1f04deU, 0xbe1f04de3d41969fU, 0xbd8a4704bd981aeaU,
  0x3da5eed13d981aeaU, 0xbdc1969fbe3aacabU, 0xbe3aacabbd5d3e6cU, 0x3e035d103d25eed1U,
  0xbe0a47043d41969fU, 0x3dcf6a86bdf8e63aU, 0xbdcf6a863e7fd02dU, 0xbc5d3e6c3ddd3e6cU,
  0xbdb3c2b8U, 0x3d78e63a3e9130f7U, 0x3db3c2b83d0a4704U, 0xbe1130f7be86d20aU,
  0x3df8e63abdeb1253U, 0xbe3aacab3df8e63aU, 0x3e2cd8c5bca5eed1U, 0x3ca5eed1be565479U,
  0x3d41969f3e1f04deU, 0xbdb3c2b8be25eed1U, 0x3e1130f73e71fc46U, 0x3e1130f73e642860U,
  0xbd8a47043d981aeaU, 0x3cdd3e6cbd78e63aU, 0xbd5d3e6cbd0a4704U, 0xbd5d3e6cbe0a4704U,
  0xbd5d3e6c3e642860U, 0xbd41969fbe3aacabU, 0xbe4880923cdd3e6cU, 0x3e6428603ebaacabU,
  0x3e035d10be835d10U, 0x3ca5eed13d41969fU, 0xbbdd3e6cbe4f6a86U, 0xbe5d3e6cbd0a4704U,
  0xbd981aea3db3c2b8U, 0x3da5eed1bc5d3e6cU, 0x3eb04dbe3e565479U, 0xbe71fc463db3c2b8U,
  0xbea963cb3e642860U, 0xbe4f6a86be1130f7U, 0xbca5eed13ec1969fU, 0xbcdd3e6c3ddd3e6cU,
  0xbe71fc46be0a4704U, 0xbe981aea3e488092U, 0x3e0a4704bddd3e6cU, 0xbd25eed1bd981aeaU,
  0xbe035d10bef1fc46U, 0x3ea5eed13ddd3e6cU, 0xbe6b1253bec88092U, 0xbeb737b23eacd8c5U,
  0x3e6b12533ca5eed1U, 0xbe8a4704befc5b34U, 0xbddd3e6c3e035d10U, 0xbca5eed1be9b8fe4U,
  0x3e2cd8c5be565479U, 0xbeb3c2b8U, 0xbe25eed13df8e63aU, 0xbdc1969fbed9c973U,
  0xbef8e63abebaacabU, 0xbd0a47043d0a4704U, 0x3e1f04debd981aeaU, 0x3e2cd8c53da5eed1U,
  0xbe181aeabdeb1253U, 0xbe835d10bebe21a5U, 0xbec88092be642860U, 0xbd41969fbea963cbU,
  0xbd981aeabe181aeaU, 0xbdb3c2b83e1f04deU, 0xbe78e63abec1969fU, 0x3d78e63a3ecf6a86U,
  0xbec1969fbec1969fU, 0xbddd3e6cbd41969fU, 0xbc5d3e6cbe41969fU, 0xbf12eb743ec1969fU,
  0xbec1969fbe8a4704U, 0xbe835d10bed2df7fU, 0x3da5eed13cdd3e6cU, 0xbf2cd8c53deb1253U,
  0xbeb04dbebe9f04deU, 0xbd981aea3db3c2b8U, 0x3db3c2b8be9130f7U, 0xbe9f04de3d981aeaU,
  0xbe1130f7be181aeaU, 0xbe25eed1bf2963cbU, 0xbea279d83e835d10U, 0xbda5eed13e8dbbfdU,
  0x3e642860be8a4704U, 0xbebaacabbe8a4704U, 0xbf1b8fe43ea963cbU, 0x3d25eed1bec1969fU,
  0xbeffd02dbe3aacabU, 0xbe41969fbf088c87U, 0x3e71fc46be565479U, 0x3ec50b983e642860U,
  0xbe1130f73df8e63aU, 0xbe86d20abef57140U, 0xbe33c2b8bd8a4704U, 0xbe5d3e6cbeee874dU,
  0x3e7fd02d3d8a4704U, 0xbe9b8fe43edd3e6cU, 0x3e035d103e1130f7U, 0x3e035d10be41969fU,
  0xbe41969f3db3c2b8U, 0x3ebaacabbd0a4704U, 0x3e94a5f1bf5b83efU, 0xbea5eed13bdd3e6cU,
  0x3e181aeabe5d3e6cU, 0xbe4f6a86bea279d8U, 0xbca5eed13e71fc46U, 0x3ecbf58c3e4f6a86U,
  0xbe71fc46bea5eed1U, 0x3db3c2b83df8e63aU, 0xbe86d20abdb3c2b8U, 0x3d25eed13d0a4704U,
  0xbf19d5673e86d20aU, 0xbd41969f3e94a5f1U, 0x3d78e63abca5eed1U, 0xbdeb12533e035d10U,
  0xbd41969fbcdd3e6cU, 0xbda5eed1bda5eed1U, 0x3da5eed13da5eed1U, 0xbcdd3e6cbe2cd8c5U,
  0xbecf6a863ddd3e6cU, 0xbd0a47043db3c2b8U, 0xbda5eed13e2cd8c5U, 0xbd8a47043d41969fU,
  0x3dc1969f3ddd3e6cU, 0xbe642860bddd3e6cU, 0x3deb1253bc5d3e6cU, 0x3e0a4704bebaacabU,
  0xbdcf6a86be71fc46U, 0xbd0a4704U, 0xbd981aea00000000U, 0xbe3aacabbe9130f7U,
  0x3ddd3e6cbc5d3e6cU, 0xbd8a4704bd5d3e6cU, 0xbd78e63a3e86d20aU, 0x3d0a4704be94a5f1U,
  0x3ca5eed1bdeb1253U, 0xbe5d3e6c3e8dbbfdU, 0x3e71fc463e181aeaU, 0x3bdd3e6c3deb1253U,
  0xbe245a2fbe84119dU, 0x3dbbd4c8bd0cdf96U, 0xbe245a2fbe84119dU, 0xbd81224a3e12be3cU,
  0x3df687473e768747U, 0xbe2a38d5be89f043U, 0x3e534f613d3bd4c8U, 0xbe12be3c3e245a2fU,
  0x3e2a38d5bd81224aU, 0x3e592e07be6ac9faU, 0xbe64eb54be64eb54U, 0x3e245a2fbd6ac9faU,
  0xbe30177c3e7c65edU, 0xbd8cdf963c3bd4c8U, 0x3e6ac9fabe01224aU, 0x3e89f043bdc79215U,
  0x3e6ac9fa3ef9769aU, 0xbdb0177cbe89f043U, 0xbe70a8a1bd8cdf96U, 0xbe592e07be0cdf96U,
  0x3ceac9fabcbbd4c8U, 0x3e4d70bb3e1e7b89U, 0x3e9b8c36bf189ce3U, 0x3eb306cf3deac9faU,
  0xbe6ac9fabe8cdf96U, 0xbf0b67ed3d8cdf96U, 0x3dc792153d6ac9faU, 0xbe70a8a13efc65edU,
  0x3e245a2fbe92be3cU, 0xbd534f61bc3bd4c8U, 0xbebbd4c8U, 0x3dbbd4c8bd3bd4c8U,
  0xbecd70bbbe41b36eU, 0x3e8fcee9be189ce3U, 0xbd8cdf96be9e7b89U, 0xbed92e073e01224aU,
  0x3e35f622becd70bbU, 0x3d989ce3beb5f622U, 0xbe7c65ed3c3bd4c8U, 0x3d989ce3bea45a2fU,
  0x3e84119dbe70a8a1U, 0x3d3bd4c8bead2829U, 0xbef397f4bdd34f61U, 0x3f2e9fd2bd245a2fU,
  0xbe245a2fbd6ac9faU, 0xbceac9fabe592e07U, 0xbe9b8c36bdc79215U, 0xbeca8168bd534f61U,
  0xbe12be3c3dbbd4c8U, 0x3d0cdf96be64eb54U, 0xbf0299f3bdb0177cU, 0xbeb0177cbe0700f0U,
  0x3eff55403e2a38d5U, 0x3e35f6223e64eb54U, 0xbe7c65ed3e35f622U, 0x3e8fcee93e7c65edU,
  0xbec4a2c2bd3bd4c8U, 0x3ebbd4c8beedb94dU, 0xbcbbd4c8bedf0caeU, 0xbea16adc3f3a5d1fU,
  0x3ddf0caebd81224aU, 0xbe592e07bead2829U, 0xbf0e5740be768747U, 0xbbbbd4c83e0cdf96U,
  0xbe64eb54bd81224aU, 0x3df68747be12be3cU, 0x3e1e7b89bd6ac9faU, 0xbe84119d3df68747U,
  0x3c3bd4c8be81224aU, 0xbe35f622be534f61U, 0x3ceac9fa3dd34f61U, 0xbda45a2fbe35f622U,
  0xbd0cdf96be12be3cU, 0x3db0177cbd8cdf96U, 0x3cbbd4c83d534f61U, 0xbddf0caebe12be3cU,
  0xbe3bd4c83ec4a2c2U, 0xbc8cdf96bdc79215U, 0x3e3bd4c83d534f61U, 0x3ceac9fabe189ce3U,
  0xbd6ac9fa3df68747U, 0xbddf0cae3ceac9faU, 0x3c3bd4c83c3bd4c8U, 0x3eca8168bebec41bU,
  0xbe1e7b89be4d70bbU, 0x3e64eb543db0177cU, 0xbcbbd4c8bbbbd4c8U, 0xbe189ce33ea45a2fU,
  0x3e0cdf963eb306cfU, 0x3e0cdf96be1e7b89U, 0x3cbbd4c8be5f0caeU, 0xbea45a2fbdb0177cU,
  0x3e35f6223e41b36eU, 0x3da45a2f3d0cdf96U, 0xbe592e07bf0e5740U, 0x3ead28293da45a2fU,
  0xbd3bd4c83d3bd4c8U, 0xbc8cdf963deac9faU, 0xbc3bd4c83db0177cU, 0x3d0cdf96be7c65edU,
  0x3ceac9fabc8cdf96U, 0x3d0cdf963e1e7b89U, 0xbceac9fa3c3bd4c8U, 0xbd534f613deac9faU,
  0x3dbbd4c83e84119dU, 0x3e592e073e189ce3U, 0xbdb0177cbe592e07U, 0xbe30177cbea45a2fU,
  0x3bbbd4c8be7c65edU, 0x3d0cdf96bdd34f61U, 0x3d245a2fbdf68747U, 0xbe4d70bbbdb0177cU,
  0xbe12be3c3c3bd4c8U, 0x3deac9fa3db0177cU, 0x3e12be3cbe12be3cU, 0xbd3bd4c8bddf0caeU,
  0xbe01224abd534f61U, 0x3eca816800000000U, 0xbea749823e0700f0U, 0x3deac9fabe3bd4c8U,
  0x3d8cdf963bbbd4c8U, 0xbd0cdf963deac9faU, 0xbc8cdf963e479215U, 0x3dd34f613c3bd4c8U,
  0x3d8cdf963d81224aU, 0xbe35f6223dd34f61U, 0x3e3bd4c83d8cdf96U, 0x3c8cdf96be64eb54U,
  0xbdeac9fa3deac9faU, 0xbec79215be70a8a1U, 0xbe12be3c3dc79215U, 0x3dd34f613e7c65edU,
  0xbda45a2f3d81224aU, 0x3dbbd4c83e0cdf96U, 0x3d245a2f3d8cdf96U, 0x3e989ce33d3bd4c8U,
  0xbdc792153e534f61U, 0x3e2a38d53e189ce3U, 0x3e245a2f3bbbd4c8U, 0xbe4792153ceac9faU,
  0xbc8cdf96be84119dU, 0x3e81224a3e2a38d5U, 0xbefc65ed3d6ac9faU, 0xbe3bd4c83c8cdf96U,
  0xbec1b36e3e12be3cU, 0x3dbbd4c83e3bd4c8U, 0x3dc792153c3bd4c8U, 0xbe189ce33d245a2fU,
  0x3e592e073d989ce3U, 0xbe84119dbdf68747U, 0x3d534f61be6ac9faU, 0x3d8cdf96bdd34f61U,
  0xbe12be3cbd8cdf96U, 0xbe3bd4c8bd989ce3U, 0xbe30177c3d989ce3U, 0x3e01224a3dc79215U,
  0x3e592e07bdc79215U, 0xbe2a38d5bdd34f61U, 0x3d989ce33c8cdf96U, 0x3c3bd4c8be0cdf96U,
  0xbe9efeaebe641f80U, 0xbda5e85d3d5d35d1U, 0xbe8db67abec503eeU, 0xbdeb092ebe0a41a3U,
  0x3e78dc8bbe9b89d7U, 0x3e7fc63abe5d35d1U, 0xbe7fc63abe0a41a3U, 0x3d5d35d1be8a41a3U,
  0x3e9b89d7bec18f17U, 0x3c5d35d1bdeb092eU, 0xbe0a41a3bddd35d1U, 0x3ed64c23be0a41a3U,
  0xbddd35d13deb092eU, 0x3bdd35d1bc5d35d1U, 0x3d5d35d13d25e85dU, 0xbebaa569be3aa569U,
  0x3e564c233e6b092eU, 0xbe25e85dbe912b51U, 0xbe4878c63e8a41a3U, 0xbea95d343deb092eU,
  0x3cdd35d1bc5d35d1U, 0x3e0a41a33d981500U, 0xbe8a41a3be6b092eU, 0xbecf62743e6b092eU,
  0xbe418f17bddd35d1U, 0xbdb3bbbabea27386U, 0x3e112b513d25e85dU, 0xbca5e85d3dc18f17U,
  0xbbdd35d1bd8a41a3U, 0xbe8a41a3bdf8dc8bU, 0xbec18f17be112b51U, 0xbe78dc8b3d0a41a3U,
  0xbe0a41a3be641f80U, 0xbd0a41a3bdeb092eU, 0xbd8a41a3be25e85dU, 0xbe2cd20c3e0a41a3U,
  0x3dc18f17be8357f4U, 0xbe418f17bbdd35d1U, 0xbe2cd20c3e4878c6U, 0xbe3aa569bed9c0faU,
  0xbd0a41a3be78dc8bU, 0xbe641f80be25e85dU, 0x3c5d35d13da5e85dU, 0x3d8a41a3be112b51U,
  0xbdf8dc8b3ea5e85dU, 0x3d0a41a33ddd35d1U, 0xbd9815003e5d35d1U, 0x3e3aa569bcdd35d1U,
  0xbcdd35d1bda5e85dU, 0xbe4f62743d418f17U, 0xbdb3bbba3d981500U, 0x3e912b51be1efeaeU,
  0xbe2cd20cbe2cd20cU, 0x3e5d35d13df8dc8bU, 0xbe0357f4bdf8dc8bU, 0xbe6b092e3eb3bbbaU,
  0x3e2cd20cbdcf6274U, 0xbe564c23bd25e85dU, 0x3e33bbbabe1efeaeU, 0xbd8a41a3bdb3bbbaU,
  0xbe1815003e9b89d7U, 0x3bdd35d13d418f17U, 0xbe1efeaebe33bbbaU, 0x3e3aa569bdf8dc8bU,
  0x3e1815003deb092eU, 0x3d8a41a3bd78dc8bU, 0x3d8a41a33cdd35d1U, 0x3d78dc8bbef1f2ddU,
  0xbe981500bc5d35d1U, 0xbe1815003d981500U, 0x3e7fc63abe8db67aU, 0x3e181500be1efeaeU,
  0x3eb730913dc18f17U, 0xbdeb092e3d25e85dU, 0xbd8a41a3be112b51U, 0xbe641f80be4f6274U,
  0x3ddd35d13e86ccccU, 0xbdc18f17bef567b4U, 0xbd9815003d0a41a3U, 0x3e418f173ca5e85dU,
  0x3eacd20cbdf8dc8bU, 0x3e0a41a33d78dc8bU, 0x3d78dc8b3d8a41a3U, 0xbd9815003e0357f4U,
  0x3d25e85d3deb092eU, 0x0U, 0x3cdd35d13c5d35d1U, 0xbd9815003cdd35d1U,
  0x3ca5e85d3d78dc8bU, 0xbd9815003e6b092eU, 0xbd9815003d8a41a3U, 0x3e4f6274be9efeaeU,
  0x3cdd35d13dc18f17U, 0x3d78dc8bU, 0x3e0a41a33da5e85dU, 0x3dc18f17be418f17U,
  0x3c5d35d13d25e85dU, 0xbe9efeaebd78dc8bU, 0xbd9815003e3aa569U, 0x3cdd35d13ebe1a40U,
  0x3e9b89d73df8dc8bU, 0x3e9b89d73d418f17U, 0xbe9efeae3e3aa569U, 0xbd25e85d3cdd35d1U,
  0x3e94a0293cdd35d1U, 0x3d8a41a3bd25e85dU, 0xbdb3bbba3e5d35d1U, 0xbee0aaa93c5d35d1U,
  0x3df8dc8b3ddd35d1U, 0x3db3bbba3e912b51U, 0x3e0a41a33ddd35d1U, 0x3dc18f173ca5e85dU,
  0xbd981500be912b51U, 0x3e1efeae3d5d35d1U, 0x3bdd35d1bd8a41a3U, 0xbcdd35d13dc18f17U,
  0xbdc18f173d25e85dU, 0x3eb3bbbabd981500U, 0x3cdd35d1bf019d89U, 0x3e71f2dd3e0357f4U,
  0xbd418f17be7fc63aU, 0xbee79457bbdd35d1U, 0xbe7fc63abebe1a40U, 0x3e1815003e4878c6U,
  0x3ca5e85dbe3aa569U, 0x3e112b51be78dc8bU, 0xbdcf6274be181500U, 0xbdc18f17bd418f17U,
  0x3eb730913dc18f17U, 0xbe2cd20c3ec503eeU, 0x3edd35d1bd981500U, 0x3d25e85d3e8357f4U,
  0x3ca5e85d3ef567b4U, 0xbee0aaa93e564c23U, 0x3ee79457bd981500U, 0x3e0a41a33db3bbbaU,
  0xbc5d35d13e2cd20cU, 0xbea27386bd418f17U, 0x3d78dc8b3db3bbbaU, 0x3d5d35d1bdb3bbbaU,
  0x3e0357f4bec503eeU, 0x3e1efeae3d5d35d1U, 0x3ed9c0fa3e2cd20cU, 0xbddd35d13f5b7b66U,
  0xbe641f80be181500U, 0x3bdd35d13e3aa569U, 0x3ee41f80be8357f4U, 0x3d9815003dcf6274U,
  0x3c5d35d1bd0a41a3U, 0x3e6b092e3eb73091U, 0x3e112b513e33bbbaU, 0x3e9b89d7be4f6274U,
  0x3eacd20c3e981500U, 0x3d8a41a33f2b17a0U, 0xbe1efeae3e33bbbaU, 0x3ed2d74c3d25e85dU,
  0x3e1efeae3df8dc8bU, 0x3d5d35d13e418f17U, 0x3d9815003f2b17a0U, 0xbddd35d1bca5e85dU,
  0x3d3711c9bdeb6003U, 0xbeba56adbeb08802U, 0xbdf87391be4aaf1fU, 0x3dde4c74be99a5c9U,
  0x3e094d57bd5138e6U, 0xbec76a3bbecaaf1fU, 0x3d02c3903d3711c9U, 0x3e7efd583db711c9U,
  0xbd02c390bc9ceaadU, 0x3d9ceaadU, 0x3e094d57bd1ceaadU, 0x3e4aaf1fbe0fd71eU,
  0xbd6b6003bcd138e6U, 0xbdf87391bea02f90U, 0x3e308802bed47dcaU, 0xbd8fd71ebed138e6U,
  0xbd82c3903e1ceaadU, 0xbee81b1fbe442558U, 0xbe0fd71ebe5138e6U, 0xbe0fd71ebe1ceaadU,
  0xbdd138e6be3711c9U, 0xbdf873913e094d57U, 0x3e5138e6bdb711c9U, 0xbd82c3903c5138e6U,
  0x3d82c390bdf87391U, 0xbd5138e600000000U, 0xbe71e9ca3d3711c9U, 0xbdde4c74bbd138e6U,
  0x3deb6003be02c390U, 0x3e71e9cabd02c390U, 0xbbd138e6be787391U, 0xbd6b6003bda9fe3bU,
  0xbdc42558bd8fd71eU, 0x3dde4c743c5138e6U, 0xbe3711c9bdde4c74U, 0x3e094d573dc42558U,
  0x3e7efd583bd138e6U, 0x3bd138e6bdc42558U, 0xbdc42558be1ceaadU, 0x3dc4255800000000U,
  0xbd02c3903e094d57U, 0xbe094d573e29fe3bU, 0x3c5138e63dd138e6U, 0xbe9ceaadbeba56adU,
  0xbd5138e6be57c2adU, 0xbe02c390be094d57U, 0x3e931c023e1660e5U, 0x3ea37474be0fd71eU,
  0x3e3088023e442558U, 0xbe64d63cbe860873U, 0xbe4aaf1f3e1ceaadU, 0x3eb3cce63e308802U,
  0xbd8fd71e3e094d57U, 0x3e02c390bec42558U, 0xbcd138e6bc5138e6U, 0xbdd138e6be931c02U,
  0x3cd138e6bdeb6003U, 0xbe3088023d5138e6U, 0xbeba56adbdb711c9U, 0xbd6b6003bdde4c74U,
  0xbd6b60033eb08802U, 0xbd6b60033e71e9caU, 0xbdd138e6be71e9caU, 0x3e29fe3bbd82c390U,
  0xbef1e9cabe3711c9U, 0xbe57c2adbe5138e6U, 0xbebd9b91be64d63cU, 0xbd02c3903d8fd71eU,
  0xbc5138e6bea02f90U, 0x3dd138e6bc5138e6U, 0x3d6b6003be7efd58U, 0x3d1ceaad3df87391U,
  0xbf19a5c9U, 0xbec0e074bdde4c74U, 0xbe57c2adbdb711c9U, 0xbe1660e5bef87391U,
  0xbbd138e6be02c390U, 0x3d02c390bcd138e6U, 0xbc5138e6bf4f9674U, 0x3bd138e6be3711c9U,
  0x3e7873913c9ceaadU, 0xbdd138e63c5138e6U, 0xbe6b60033d3711c9U, 0xbdf873913d6b6003U,
  0xbda9fe3b3d6b6003U, 0x3d9ceaad3d5138e6U, 0x3e71e9cabefbb875U, 0xbea6b957be57c2adU,
  0xbd8fd71ebd9ceaadU, 0xbe1ceaad3d6b6003U, 0x3d5138e63df87391U, 0xbe3d9b913db711c9U,
  0xbe64d63c3e442558U, 0xbe4aaf1fbdd138e6U, 0xbd3711c9be71e9caU, 0x3dd138e63e237474U,
  0xbec76a3bbe8fd71eU, 0xbe237474bf0fd71eU, 0xbe8fd71ebeb3cce6U, 0xbe4aaf1fbe82c390U,
  0x3d8fd71ebdd138e6U, 0xbc9ceaadbe442558U, 0xbe0fd71ebc9ceaadU, 0x3ebd9b91be442558U,
  0xbf094d57bf29fe3bU, 0xbbd138e6be0fd71eU, 0xbea02f903e237474U, 0xbe71e9cabcd138e6U,
  0xbdb711c93e3711c9U, 0xbdde4c74bec42558U, 0x3dde4c74be3711c9U, 0xbe64d63cbe894d57U,
  0x3bd138e6bd9ceaadU, 0xbe5138e6be57c2adU, 0xbebd9b913d8fd71eU, 0xbdc42558be308802U,
  0xbe3088023d02c390U, 0x3dc425583bd138e6U, 0xbea9fe3bbc9ceaadU, 0x3ea02f90bd6b6003U,
  0xbeb711c9bf02c390U, 0xbe82c390bef87391U, 0xbdc425583df87391U, 0xbe3d9b91bdc42558U,
  0xbe094d573d9ceaadU, 0xbea374743eb3cce6U, 0xbf0608733c9ceaadU, 0xbd9ceaadbc9ceaadU,
  0xbea9fe3bbead431fU, 0x3deb6003bc9ceaadU, 0xbefefd58bcd138e6U, 0xbe3d9b91be02c390U,
  0xbe8c923bbe237474U, 0xbdb711c93bd138e6U, 0x3e4aaf1fbd82c390U, 0xbe8fd71e3d3711c9U,
  0xbe860873bd9ceaadU, 0x3db711c9be094d57U, 0x3bd138e63eb3cce6U, 0xbe8c923b3d9ceaadU,
  0xbe99a5c9be237474U, 0xbe71e9ca3d3711c9U, 0xbe99a5c93f1b483bU, 0xbc5138e6be0fd71eU,
  0x3c5138e6be3711c9U, 0x3d02c390be8fd71eU, 0xbec425583ed7c2adU, 0xbdeb6003bec42558U,
  0x3e0fd71ebf356f58U, 0xbc5138e63e931c02U, 0xbd3711c9be82c390U, 0xbef52eae3e9660e5U,
  0xbd02c390bdf87391U, 0xbbd138e63deb6003U, 0x3e29fe3bbd1ceaadU, 0xbea9fe3bbe894d57U,
  0xbd1ceaadbe64d63cU, 0xbe442558bda9fe3bU, 0x3e1ceaadbd9ceaadU, 0xbe0fd71e3e3d9b91U,
  0xbe9f2d90be47e5deU, 0x3b6cea833e2a488eU, 0xbcecea83bd6cea83U, 0xbeb1afe23e9f2d90U,
  0xbe7451d7be2694e4U, 0xbe88f793bed88e5bU, 0xbe7f6cd53e01903fU, 0xbe8cab3ebdde1bdaU,
  0x3d8cab3ebebccae0U, 0x3de5832fbe8ad169U, 0xbe3917363dcf4d32U, 0xbe105ee8U,
  0xbe8cab3ebdd6b486U, 0xbd941292be01903fU, 0x3d8543e9bd7bb92bU, 0x3dde1bdabd6cea83U,
  0xbe56b486be61cf84U, 0xbd941292bdecea83U, 0xbe9b79e6be56b486U, 0xbedff5afbe8543e9U,
  0xbd8543e9be08f793U, 0x3e5300dc3d22e13aU, 0x3d22e13abd22e13aU, 0xbd4f4d32be56b486U,
  0x3c31afe2be2a488eU, 0xbcb1afe23db91736U, 0x3d407e8abe31afe2U, 0xbea10765be6936d9U,
  0x3e2694e4be99a011U, 0xbd5e1bdabd6cea83U, 0x3d5e1bdabe141292U, 0x3e0543e93de5832fU,
  0xbd6cea83be88f793U, 0x3d22e13a3b6cea83U, 0x3d22e13abd407e8aU, 0xbbecea833dcf4d32U,
  0xbd22e13abdb91736U, 0xbd7bb92bbe4b9988U, 0xbd7bb92bbb6cea83U, 0x3d8cab3ebebccae0U,
  0x3df451d7be6cea83U, 0x3cb1afe2bd941292U, 0xbe391736bc6cea83U, 0x3e35638cbe7bb92bU,
  0xbe95ec67be5300dcU, 0xbcecea83be780581U, 0xbd7bb92bbe1f2d90U, 0xbd9b79e63e61cf84U,
  0xbe56b4863cecea83U, 0xbdf451d73dc7e5deU, 0xbb6cea83be65832fU, 0xbccf4d32bea10765U,
  0xbe8e8513bd6cea83U, 0x3e3ccae03dcf4d32U, 0xbe2dfc383d407e8aU, 0xbd7bb92bbd407e8aU,
  0x3c31afe2bd941292U, 0xbd0543e9bdecea83U, 0xbcb1afe2be5300dcU, 0xbe35638cbd8543e9U,
  0xbede1bdabe709e2dU, 0xbeeb10ae3becea83U, 0x3d31afe23cecea83U, 0xbd22e13a3c941292U,
  0xbd141292be7451d7U, 0x3d8cab3ebd0543e9U, 0x3e0543e9bd6cea83U, 0xbdc07e8a3e2a488eU,
  0xbdb1afe23e22e13aU, 0xbe9b79e6bde5832fU, 0x3df451d73e7451d7U, 0x3d9412923dfbb92bU,
  0x3db1afe2be2a488eU, 0x3e35638cbe7bb92bU, 0x3d9b79e63d941292U, 0xbdcf4d32be8543e9U,
  0xbe8ad169be6cea83U, 0xbdecea83bdf451d7U, 0x3da2e13abc941292U, 0x3d22e13a3e9d53bbU,
  0xbdaa488e3db91736U, 0xbe7bb92bbcb1afe2U, 0x3e01903fbeb389b7U, 0x3e47e5debe65832fU,
  0xbea694e4be22e13aU, 0x3ea86eb93cecea83U, 0x3db917363d941292U, 0xbdc07e8abde5832fU,
  0x3becea833db1afe2U, 0xbd7bb92b3e56b486U, 0xbc31afe23e88f793U, 0x3d22e13abe31afe2U,
  0xbec432343d0543e9U, 0xbea86eb93dcf4d32U, 0x3e4432343e3ccae0U, 0x3e8e8513bdecea83U,
  0x3e2a488ebe905ee8U, 0x3dd6b486be0cab3eU, 0x3d6cea83bd407e8aU, 0xbdd6b4863d5e1bdaU,
  0x3e31afe2bb6cea83U, 0xbeb91736be61cf84U, 0xbd8cab3e3e1b79e6U, 0xbdcf4d323c941292U,
  0x3e35638c3d31afe2U, 0xbd9b79e6bdfbb92bU, 0xbe22e13a3d7bb92bU, 0x3e1f2d90bd8cab3eU,
  0xbe9238bdbdd6b486U, 0xbc6cea83bea4bb0fU, 0x3d6cea833d7bb92bU, 0xbd4f4d323e2a488eU,
  0xbe97c63cbd7bb92bU, 0xbe56b486be105ee8U, 0x3c6cea83be5e1bdaU, 0xbe17c63cbe0cab3eU,
  0xbe0543e9bc941292U, 0x3d9b79e6bdaa488eU, 0xbe709e2d3dd6b486U, 0x3c6cea83be836a14U,
  0xbe5e1bda3c6cea83U, 0xbe4f4d323e3ccae0U, 0x3d31afe23ccf4d32U, 0x3becea833df451d7U,
  0xbe836a14be81903fU, 0xbe0cab3ebdd6b486U, 0x3e7f6cd53e871dbeU, 0xbe941292bd4f4d32U,
  0xbe8cab3ebdaa488eU, 0x3e0543e9bcb1afe2U, 0x3e4b99883c31afe2U, 0xbd22e13abe17c63cU,
  0xbd141292bc31afe2U, 0x3d407e8abe17c63cU, 0xbdb91736bdcf4d32U, 0x3d9412923e08f793U,
  0x3e2a488e3d7bb92bU, 0xbdecea833c6cea83U, 0xbe7f6cd5be105ee8U, 0xbe1f2d90bdc07e8aU,
  0xbe2694e4be81903fU, 0xbd31afe2be0cab3eU, 0xbe6936d9bdaa488eU, 0xbe2694e43e4f4d32U,
  0xbdecea83bc941292U, 0xbe141292bdb91736U, 0x3cecea83be88f793U, 0xbdde1bdabe2dfc38U,
  0xbd9412923d22e13aU, 0xbe2dfc383dcf4d32U, 0xbe1f2d903d141292U, 0x3db91736be1b79e6U,
  0xbe0cab3e3e141292U, 0xbe2dfc38bb6cea83U, 0xbd7bb92b3c6cea83U, 0x3c941292bd31afe2U,
  0xbe105ee8bed12707U, 0xbe47e5debdc7e5deU, 0x3e7805813ea10765U, 0x3c94129200000000U,
  0xbda8593dbc4065fdU, 0x3d4065fd3d104c7eU, 0x3bc065fdbec36795U, 0xbd28593dbd707f7cU,
  0xbbc065fd3da8593dU, 0xbe8a494ebd904c7eU, 0x3e526f8c3dc065fdU, 0x3d5872bcbe164fadU,
  0xbbc065fd3de4791cU, 0x3db45f9dbe64791cU, 0xbdc065fd3d707f7cU, 0x3d4065fd3c4065fdU,
  0x3d104c7e3d707f7cU, 0x3cf07f7cbe8a494eU, 0x3cc065fdbd28593dU, 0x3d104c7e3e64791cU,
  0xbdcc6c5cbd904c7eU, 0xbe5872bcbe28593dU, 0xbd4065fdbed872bcU, 0xbd104c7e3d707f7cU,
  0xbe4c6c5c3e64791cU, 0xbd104c7ebe8747b6U, 0x3dd872bc3d84461eU, 0xbbc065fd3e104c7eU,
  0xbe2e5c6d3e2e5c6dU, 0xbd707f7cbdd872bcU, 0x3d84461e3d904c7eU, 0x3e1c52ddbe0a494eU,
  0xbdf07f7c3e5e75ecU, 0xbd9c52ddbc4065fdU, 0xbd104c7e3e2e5c6dU, 0x3d28593dbd4065fdU,
  0x3df07f7cbda8593dU, 0x3cf07f7cbc4065fdU, 0xbd104c7ebbc065fdU, 0x3e4065fdbe964fadU,
  0xbcf07f7c3cc065fdU, 0xbd28593dbd5872bcU, 0xbd84461ebc904c7eU, 0x3e46692d00000000U,
  0x3dd872bc3e1c52ddU, 0xbe8144863df07f7cU, 0x3e2e5c6dbd28593dU, 0xbe46692dbe345f9dU,
  0x3d104c7e3eb45f9dU, 0xbdfc85dcbe04461eU, 0xbdd872bcbc904c7eU, 0x3e0a494e3e4065fdU,
  0x3dcc6c5c3eb45f9dU, 0xbda8593dbd104c7eU, 0xbbc065fdbe3a62cdU, 0x3c4065fd3d28593dU,
  0x3dd872bcbdb45f9dU, 0x3e5872bc3d904c7eU, 0x3e22560dbdfc85dcU, 0xbee4791cbe707f7cU,
  0xbe8144863e04461eU, 0xbe46692dbe164fadU, 0xbe46692d3f22560dU, 0xbdd872bcU,
  0xbd4065fdbe164fadU, 0xbda8593d3f3ee531U, 0x3ea557a5bbc065fdU, 0xbdd872bcbe46692dU,
  0xbe04461ebeab5ad5U, 0x3e707f7cbee77ab4U, 0xbe707f7cbe2e5c6dU, 0xbd904c7ebe04461eU,
  0x3f04461e3db45f9dU, 0xbc4065fdbeb76135U, 0xbdf07f7c3dd872bcU, 0xbef984443d104c7eU,
  0xbd4065fd3d5872bcU, 0x3de4791cbdf07f7cU, 0x3c904c7ebdd872bcU, 0x3e28593dbbc065fdU,
  0xbe6a7c4c3e707f7cU, 0xbee4791cbe9c52ddU, 0xbd28593d3e5e75ecU, 0xbd4065fdbea8593dU,
  0xbd9c52dd3db45f9dU, 0xbe8747b6bea8593dU, 0xbec96ac53de4791cU, 0x3e3a62cdbdcc6c5cU,
  0x3e6a7c4cbe8a494eU, 0x3e84461e3e5e75ecU, 0xbed872bcbe4065fdU, 0xbeab5ad53da8593dU,
  0xbeae5c6dbdd872bcU, 0x3bc065fdbdfc85dcU, 0x3c4065fd3d707f7cU, 0xbe904c7e3cc065fdU,
  0x3d904c7ebe64791cU, 0x3d9c52ddbdc065fdU, 0x3dcc6c5c3d84461eU, 0xbe6a7c4c3dcc6c5cU,
  0xbeb45f9dbeb76135U, 0x3db45f9d3d84461eU, 0xbed26f8cbf0a494eU, 0xbe8a494e3ea2560dU,
  0x3e995145be28593dU, 0x3d904c7ebd4065fdU, 0xbe46692dbe9f5475U, 0xbd904c7e3dd872bcU,
  0x3d5872bcbe5e75ecU, 0x3e7c85dcbe4c6c5cU, 0xbc904c7e3da8593dU, 0xbde4791c3c4065fdU,
  0xbe9c52ddbd28593dU, 0xbdfc85dcbd9c52ddU, 0x3e8747b6bc904c7eU, 0xbcf07f7c3d28593dU,
  0xbe9951453d5872bcU, 0xbede75ecbf1c52ddU, 0xbf02c5523dc065fdU, 0x3e995145bcc065fdU,
  0x3dcc6c5cbda8593dU, 0xbe5e75ecbbc065fdU, 0xbd9c52ddbe28593dU, 0x3e345f9d3e904c7eU,
  0xbee4791cbbc065fdU, 0xbdd872bcbf014486U, 0x3e2e5c6dbeff8774U, 0xbe8747b63eb76135U,
  0xbdf07f7cbe5e75ecU, 0x3e04461ebecc6c5cU, 0xbd5872bcbd9c52ddU, 0x3ec065fdbeab5ad5U,
  0x3da8593dbe345f9dU, 0x3d104c7e3dcc6c5cU, 0x3bc065fdbdf07f7cU, 0xbe7682acbc4065fdU,
  0xbe814486bebd6465U, 0xbe7682acbe0a494eU, 0x3e7682ac3e2e5c6dU, 0xbe28593d3d104c7eU,
  0xbc4065fdbd9c52ddU, 0xbd28593d3cc065fdU, 0xbda8593d3c4065fdU, 0xbdc065fd3e934e15U,
  0xbdc065fdbdd872bcU, 0xbe2e5c6dbda8593dU, 0xbdc065fd3eb15e05U, 0x3dc065fdbec6692dU,
  0x3e7c85dcbe345f9dU, 0xbdb45f9dbe9f5475U, 0x3c904c7ebe7682acU, 0xbd9c52ddbd28593dU,
  0x3cc065fdbec065fdU, 0x3db45f9d3eba62cdU, 0x3da8593d3dc065fdU, 0xbe2e5c6d3ea8593dU,
  0x3d104c7e3e7c85dcU, 0x3e28593d3e1c52ddU, 0xbd28593dU, 0x3d84461ebe964fadU,
  0xbc4065fdbe1c52ddU, 0x3e5872bc3e1c52ddU, 0x3e164fad3d9c52ddU, 0x3e04461e3e8d4ae6U,
  0x3ca0c65fbe02a12dU, 0x3e0cad933c71298eU, 0x3e11b3c6bdfb35f4U, 0xbe4dfe2abd82a12dU,
  0x3e8f30ad3e39e55eU, 0xbe71298ebe39e55eU, 0xbdb4df2b3d5d10c2U, 0xbba0c65fbd48f7f7U,
  0xbe48f7f7bcf1298eU, 0xbe0cad93be2ad2c5U, 0x3d8cad933c20c65fU, 0x3e34df2bbd0cad93U,
  0xbe2ad2c5be25cc92U, 0xbe20c65f3cf1298eU, 0x3c71298ebe6216f5U, 0xbd48f7f7bd0cad93U,
  0xbeafd8f83e1bc02cU, 0xbcf1298ebc71298eU, 0xbda0c65fbeb9e55eU, 0x3e7b35f43cf1298eU,
  0xbca0c65fbc20c65fU, 0xbe580a8f3e20c65fU, 0xbe96b9f93e2fd8f8U, 0x3ca0c65fbca0c65fU,
  0xbe2fd8f83cc8f7f7U, 0x3d5d10c2be25cc92U, 0xbe0cad933ca0c65fU, 0x3c20c65f3df1298eU,
  0xbdb4df2bbd82a12dU, 0xbda0c65f3d48f7f7U, 0x3d0cad933d82a12dU, 0xbe16b9f93d34df2bU,
  0x3d20c65fbd48f7f7U, 0xbe1bc02cbd82a12dU, 0x3d8cad93bddd10c2U, 0xbd96b9f9bd34df2bU,
  0xbe6c235bbe993d12U, 0xbe96b9f9bddd10c2U, 0xbe53045dbe02a12dU, 0xbe671d28be852447U,
  0xbead55de3e02a12dU, 0xbeb25c11be02a12dU, 0xbd34df2bbea84fabU, 0xbddd10c2bc71298eU,
  0xbd96b9f9be07a760U, 0xbe801e143cf1298eU, 0xbda0c65f3df1298eU, 0xbd96b9f93e34df2bU,
  0xbe8cad93be4dfe2aU, 0xbe43f1c4be1bc02cU, 0x3c20c65fbe3eeb91U, 0xbe96b9f9bdf1298eU,
  0xbe43f1c4bead55deU, 0xbe16b9f9be02a12dU, 0xbecdfe2abd20c65fU, 0xbe2ad2c5be2fd8f8U,
  0xbd5d10c2bdaad2c5U, 0xbe6216f53c20c65fU, 0xbe48f7f73cf1298eU, 0xbcf1298ebe34df2bU,
  0xbdaad2c5U, 0x3de71d28bde71d28U, 0xbcf1298e3d5d10c2U, 0xbe671d28be6216f5U,
  0x3c20c65f3ba0c65fU, 0xbe53045dbe2fd8f8U, 0x3e34df2bbe6216f5U, 0x3ba0c65fbe20c65fU,
  0xbee49a0fbe8cad93U, 0xbdaad2c5U, 0xbdb4df2bbdbeeb91U, 0xbdf1298ebe8f30adU,
  0x3d0cad933d34df2bU, 0xbea0c65fbdd3045dU, 0x3e07a760be48f7f7U, 0x3d96b9f93da0c65fU,
  0xbda0c65f3d0cad93U, 0xbe6216f5bdfb35f4U, 0xbe2fd8f8bdaad2c5U, 0xbf1f84d23ddd10c2U,
  0xbe2ad2c5bd82a12dU, 0xbd20c65fbeb4df2bU, 0xbe25cc92bea84fabU, 0xbe6c235bbd20c65fU,
  0x3e48f7f7bdaad2c5U, 0xbe6c235bbd96b9f9U, 0x3d0cad933e6216f5U, 0xbea84fabbd71298eU,
  0xbe11b3c63e34df2bU, 0x3ca0c65fbe43f1c4U, 0xbdf1298ebe16b9f9U, 0xbe3eeb91be11b3c6U,
  0xbd8cad93be0cad93U, 0x3c71298ebe1bc02cU, 0x3ba0c65fbc20c65fU, 0xbe25cc923dbeeb91U,
  0x3dc8f7f7be02a12dU, 0xbe2fd8f8be71298eU, 0xbd20c65fbe9436dfU, 0xbc71298ebba0c65fU,
  0xbe580a8f3dc8f7f7U, 0xbe8cad93bdfb35f4U, 0x3d20c65fbc71298eU, 0xbde71d28be8cad93U,
  0x3eda8da9U, 0xbd71298ebe48f7f7U, 0x3d5d10c2be8cad93U, 0xbe20c65fbdfb35f4U,
  0xbe20c65f3e762fc1U, 0xbe6216f53d34df2bU, 0xbde71d28bc20c65fU, 0x3ca0c65f3db4df2bU,
  0x3e0cad933d34df2bU, 0xbddd10c2be39e55eU, 0x3d0cad93beaad2c5U, 0xbd96b9f93ddd10c2U,
  0xbe20c65fbdb4df2bU, 0xbddd10c2beda8da9U, 0xbd20c65fbda0c65fU, 0xbec674ddbea5cc92U,
  0xbe3eeb913d82a12dU, 0xbe71298e3dd3045dU, 0xbeafd8f83e4dfe2aU, 0xbdb4df2bbe16b9f9U,
  0xbea5cc92be6c235bU, 0xbdc8f7f73db4df2bU, 0x3e34df2bbd34df2bU, 0xbe48f7f7be07a760U,
  0xbebc6877be16b9f9U, 0xbea34978bc71298eU, 0xbd0cad93bec674ddU, 0xbdbeeb91be7b35f4U,
  0xbba0c65f3dbeeb91U, 0xbe9e4345beb4df2bU, 0x3d5d10c2be91b3c6U, 0xbcf1298ebe4dfe2aU,
  0xbcf1298ebdbeeb91U, 0xbe2fd8f8bec3f1c4U, 0xbe07a760bc71298eU, 0x3dbeeb91be43f1c4U,
  0xbe87a760be2ad2c5U, 0xbe16b9f9be39e55eU, 0xbca0c65fbe2ad2c5U, 0xbdc8f7f7bc71298eU,
  0xbdc8f7f7be16b9f9U, 0xbeb4df2bbefb35f4U, 0xbeb76244beb9e55eU, 0xbe48f7f7be9436dfU,
  0xbd96b9f93daad2c5U, 0xbe25cc923c71298eU, 0x3e580a8fbe852447U, 0xbe8f30adbd5d10c2U,
  0xbeafd8f8be25cc92U, 0xbe6c235bU, 0xbe82a12dbdaad2c5U, 0xbe96b9f93d34df2bU,
  0xbdfb35f4be9436dfU, 0xbe801e14be580a8fU, 0x3dc8f7f7bda0c65fU, 0xbe671d28bd48f7f7U,
  0xbe247a9cU, 0x3e6af84cbd247a9cU, 0xbeb909ef3d8cfb61U, 0xbddf38afbeb32a21U,
  0x3e8a0b7a3ceaf84cU, 0xbdf6b7eabed0892aU, 0xbe98bafe3e303a39U, 0x3e2a5a6a3e813bc4U,
  0x3e9e9acdbdeaf84cU, 0x3d0cfb61bda47a9cU, 0x3e98bafe3e70d81bU, 0x3dd37911be92db30U,
  0xbe361a08be813bc4U, 0x3dc7b9743d8cfb61U, 0x3ec1d9a5be1e9acdU, 0x3e813bc4be247a9cU,
  0xbe41d9a53e76b7eaU, 0x3ceaf84c3cbbf9d7U, 0xbeb03a393df6b7eaU, 0xbdeaf84cbe76b7eaU,
  0x3e9e9acdbc3bf9d7U, 0x3e537911bda47a9cU, 0x3d0cfb61bec4c98dU, 0x3c3bf9d7bf05a39fU,
  0xbd98bafebe813bc4U, 0x3e2a5a6abdd37911U, 0x3e92db30be12db30U, 0xbec4c98d3ddf38afU,
  0xbc3bf9d7U, 0xbddf38af3dc7b974U, 0x3c3bf9d7bf15cb17U, 0x3e361a08bd537911U,
  0xbe1e9acdbea76a83U, 0x3e3bf9d73da47a9cU, 0x3d3bf9d7be65187eU, 0xbf0e73553eb909efU,
  0x3ead4a523e12db30U, 0xbdeaf84cbed958e0U, 0xbe7c97b8bc8cfb61U, 0xbea76a833e95cb17U,
  0x3e41d9a5be813bc4U, 0xbdf6b7eabe92db30U, 0xbceaf84c3d8cfb61U, 0x3dc7b974bec1d9a5U,
  0xbe813bc4bf2012c1U, 0xbd247a9cU, 0x3edf38afbceaf84cU, 0x3ea47a9cbcbbf9d7U,
  0xbe8cfb613e95cb17U, 0xbe65187ebe5958e0U, 0xbeb32a21bc3bf9d7U, 0x3ceaf84cbecaa95bU,
  0x3bbbf9d73d0cfb61U, 0xbd813bc43d98bafeU, 0x3e013bc43d6af84cU, 0x3e7c97b8bdd37911U,
  0x3d247a9cbdf6b7eaU, 0x3d3bf9d7be70d81bU, 0xbdb03a39bf3a81e3U, 0xbec1d9a53e8a0b7aU,
  0xbc8cfb61bd537911U, 0x3d247a9cbe8a0b7aU, 0xbe247a9cbe361a08U, 0x3e247a9cbdf6b7eaU,
  0x3ceaf84c3d537911U, 0xbdeaf84c3da47a9cU, 0x3e12db3000000000U, 0xbe41d9a5bd247a9cU,
  0xbc8cfb613dbbf9d7U, 0xbc3bf9d73ceaf84cU, 0xbd247a9cbbbbf9d7U, 0xbdeaf84c3e2a5a6aU,
  0x3deaf84cbe18bafeU, 0xbe1e9acdbddf38afU, 0xbe5f38af3e013bc4U, 0x3d98bafe3e013bc4U,
  0xbe41d9a5bec1d9a5U, 0x3ddf38afbc3bf9d7U, 0x3e071b92bd0cfb61U, 0xbdd379113e92db30U,
  0xbe95cb173d8cfb61U, 0x3d247a9cbd537911U, 0xbe303a393dc7b974U, 0x3c8cfb61bd813bc4U,
  0xbc3bf9d73e071b92U, 0xbe9baae63d3bf9d7U, 0xbceaf84c3d3bf9d7U, 0x3ea76a833dc7b974U,
  0xbd5379113e1e9acdU, 0x3db03a39be1e9acdU, 0xbd537911be8cfb61U, 0xbd3bf9d7bd0cfb61U,
  0x3e071b92be361a08U, 0x3dd37911bf15cb17U, 0x3d247a9c3d537911U, 0xbed0892a3dd37911U,
  0x3e071b923e071b92U, 0xbe8a0b7a3d537911U, 0x3e8cfb61U, 0x3e9e9acd3d3bf9d7U,
  0x3d3bf9d7bd8cfb61U, 0x3e3bf9d73e842babU, 0x3e8cfb61bdeaf84cU, 0xbe813bc43e0cfb61U,
  0xbf2302a83e41d9a5U, 0xbbbbf9d73e4d9943U, 0xbe76b7eabd0cfb61U, 0xbe41d9a53ea76a83U,
  0x3e303a393e92db30U, 0xbd8cfb613bbbf9d7U, 0xbd0cfb61be813bc4U, 0xbe47b9743d6af84cU,
  0x3eaa5a6a3d6af84cU, 0x3ea18ab43e1e9acdU, 0x3e41d9a53dc7b974U, 0xbe247a9c3e4d9943U,
  0xbe12db30bdbbf9d7U, 0x3e813bc43e12db30U, 0x3d247a9c3ddf38afU, 0x3d813bc43e537911U,
  0xbd6af84c3da47a9cU, 0x3bbbf9d7bd813bc4U, 0x3d247a9c3d6af84cU, 0x3e65187ebd537911U,
  0x3dc7b974be013bc4U, 0x3dc7b9743ea18ab4U, 0xbd247a9c3bbbf9d7U, 0xbe92db303e013bc4U,
  0xbdc7b9743d537911U, 0xbcbbf9d73d3bf9d7U, 0xbd247a9c3d3bf9d7U, 0x3d6af84cbe5958e0U,
  0x3dbbf9d73eaa5a6aU, 0xbcbbf9d7bceaf84cU, 0xbe1e9acd00000000U, 0xbe12db30bdf6b7eaU,
  0x3d3bf9d7bd247a9cU, 0x3da47a9c3e47b974U, 0xbe5f38af3d8cfb61U, 0xbe013bc400000000U,
  0x3df6b7eabef6b7eaU, 0x3da47a9cU, 0xbd6af84cbd8cfb61U, 0xbe3bf9d7be303a39U,
  0x3bbbf9d7be12db30U, 0xbc3bf9d73e071b92U, 0x3e76b7ea3cbbf9d7U, 0xbddf38af3e18bafeU,
  0xbe7c97b8bd247a9cU, 0xbe071b923dbbf9d7U, 0xbddf38af3e3bf9d7U, 0x3ceaf84c3d3bf9d7U,
  0xbd247a9cbe65187eU, 0xbdb03a393bbbf9d7U, 0x3eb32a213bbbf9d7U, 0x3dbbf9d7bd8cfb61U,
  0xbe12db30be071b92U, 0xbe9e9acdbe813bc4U, 0x3db03a393c3bf9d7U, 0xbe071b923bbbf9d7U,
  0xbd614be3bce14be3U, 0xbe28f8eabe823fdfU, 0xbca8f8ea3d452266U, 0x3d8ccf6ebde14be3U,
  0xbdb70da83ca8f8eaU, 0x3be14be33e0ccf6eU, 0xbea1ee8b3da8f8eaU, 0x3e13d9cdbe13d9cdU,
  0xbd0ccf6e3d8ccf6eU, 0x3e21ee8b3d614be3U, 0x3d28f8eabc614be3U, 0x3c614be33d0ccf6eU,
  0x3e13d9cdbe7d755fU, 0xbca8f8ea3db70da8U, 0xbe0ccf6ebdc52266U, 0xbd8ccf6e3d452266U,
  0xbde14be33dc52266U, 0x3ce14be33e5a4184U, 0x3e5a4184be0ccf6eU, 0x3dfd755f3d614be3U,
  0xbc614be3be685642U, 0xbe0ccf6ebea573baU, 0xbe0ccf6e3dc52266U, 0xbe894a3e3d452266U,
  0xbd614be33d9ae42cU, 0xbe05c50f3e370da8U, 0xbdfd755f3eba92d8U, 0x3e5337253e300349U,
  0xbeac7e1abd7d755fU, 0xbe7d755f3dfd755fU, 0x3e766b003dc52266U, 0xbe1ae42cbe7d755fU,
  0xbd452266be13d9cdU, 0x3e1ae42c3dd33725U, 0x3da8f8eabbe14be3U, 0xbdb70da800000000U,
  0xbde14be3be452266U, 0x3ca8f8eabd7d755fU, 0x3ce14be3be370da8U, 0xbeb38879be685642U,
  0xbe823fdfbde14be3U, 0x3e300349be3e1807U, 0x3da8f8eabe1ae42cU, 0xbeb388793d28f8eaU,
  0xbce14be33ce14be3U, 0x3c614be3be452266U, 0x3d8ccf6e3e13d9cdU, 0xbe13d9cd3d614be3U,
  0xbca8f8ea3d7d755fU, 0xbd452266be13d9cdU, 0x3d8ccf6e3c614be3U, 0xbda8f8eabe452266U,
  0xbd7d755fbe300349U, 0x3d9ae42cbe05c50fU, 0xbe894a3ebdb70da8U, 0xbe7d755f3dd33725U,
  0xbdef60a13da8f8eaU, 0xbda8f8eabe1ae42cU, 0x3d0ccf6e3de14be3U, 0xbd7d755fbec52266U,
  0xbe614be3bd0ccf6eU, 0xbd8ccf6e3dfd755fU, 0xbe13d9cd3dfd755fU, 0x3e21ee8b3dd33725U,
  0x3ca8f8eabdfd755fU, 0x3def60a1be21ee8bU, 0xbce14be33ce14be3U, 0x3da8f8ea3e614be3U,
  0x3d28f8ea3e7d755fU, 0x3d0ccf6eU, 0x3ea1ee8b3ea8f8eaU, 0x3ca8f8ea3e21ee8bU,
  0xbe894a3e3e766b00U, 0xbd0ccf6e3ce14be3U, 0x3eba92d8bdb70da8U, 0xbe28f8eabd452266U,
  0xbe370da83ebe1807U, 0x3c614be33d0ccf6eU, 0xbeda41843ea8f8eaU, 0x3d4522663e21ee8bU,
  0x3ce14be33de14be3U, 0xbd7d755fbdd33725U, 0xbd7d755fbe0ccf6eU, 0xbe9ae42cbd0ccf6eU,
  0xbdef60a1be823fdfU, 0xbdb70da8bce14be3U, 0x3e28f8ea3ce14be3U, 0xbe7d755fbe1ae42cU,
  0xbe28f8ea3da8f8eaU, 0xbe05c50f00000000U, 0x3def60a13f192194U, 0xbde14be33e614be3U,
  0xbecfb1f5be370da8U, 0xbe28f8ea3e93d9cdU, 0x3da8f8eabd0ccf6eU, 0x3e3003493d28f8eaU,
  0x3d8ccf6ebe5a4184U, 0x3e85c50f3def60a1U, 0xbe93d9cdU, 0xbea573ba3e1ae42cU,
  0x3e3003493e894a3eU, 0xbeac7e1abef9f030U, 0x3e5337253e4c2cc5U, 0x3ee85642becc2cc5U,
  0x3eddc6b3bd9ae42cU, 0xbd8ccf6ebee85642U, 0xbca8f8ea3e5a4184U, 0x3d614be3bee14be3U,
  0xbe93d9cdbec52266U, 0x3e533725bd9ae42cU, 0x3e9e695b3ce14be3U, 0x3e823fdf3e21ee8bU,
  0x3e370da83e5a4184U, 0xbed6bc54be975efcU, 0xbe21ee8bbeb38879U, 0xbdd33725beba92d8U,
  0x3ca8f8ea3dd33725U, 0x3d452266bd452266U, 0x3ce14be3be300349U, 0x3e5a4184bee14be3U,
  0xbdd33725be90549dU, 0xbd7d755f3e21ee8bU, 0xbeba92d83eb38879U, 0xbe766b003ec8a796U,
  0xbd452266be533725U, 0x3d28f8eabe1ae42cU, 0x3e975efc3de14be3U, 0xbe8ccf6ebe7d755fU,
  0xbec19d373def60a1U, 0x3d28f8eabe7d755fU, 0xbe21ee8b3ce14be3U, 0xbd0ccf6ebe894a3eU,
  0x3de14be3be300349U, 0x3ce14be3bf0e9205U, 0xbe533725bdef60a1U, 0xbe28f8ea3c614be3U,
  0x3eebdb71bc614be3U, 0xbf4a6a2e3db70da8U, 0x3da8f8ea3d452266U, 0x3e766b00be533725U,
  0xbbe14be3be85c50fU, 0x3e894a3ebe28f8eaU, 0x3e4522663def60a1U, 0x3e370da83dfd755fU,
  0xbe975efcbdd33725U, 0x3dfd755fbe13d9cdU, 0xbdc52266bce14be3U, 0x3d614be33c614be3U,
  0x3e9e695b3f13d9cdU, 0x3ca8f8ea3ef2e5d0U, 0xbde14be33d9ae42cU, 0xbe685642beac7e1aU,
  0xbbe14be33dd33725U, 0x3f5f894bbd28f8eaU, 0x3eac7e1abee4d112U, 0xbdb70da8be93d9cdU,
  0x3e0ccf6e3eb38879U, 0x3d8ccf6ebd614be3U, 0x3d614be33e5a4184U, 0x3e28f8ea3eda4184U,
  0xbdb9ac8f3e46efbeU, 0xbe11e3033c9f2631U, 0x3e6817b33ee1761bU, 0x3e18849a3e4d9155U,
  0xbde1761b3c9f2631U, 0xbebcfd5b3e5432edU, 0x3e9533cebe9f2631U, 0x3e755ae2bd91e303U,
  0xbec04e263d849fd4U, 0xbeb65bc33e049fd4U, 0x3c5432edbf07f0a0U, 0xbd91e3033d849fd4U,
  0x3eb30af8be39ac8fU, 0xbd1f2631bdd432edU, 0xbe5ad484be5ad484U, 0x3e4d9155beb65bc3U,
  0x3d1f2631bd6eb94aU, 0x3e87f0a03ea91895U, 0x3db9ac8f3e049fd4U, 0x3e8b416b3d5432edU,
  0xbe4d91553dac6960U, 0x3dc6efbebe8b416bU, 0x3d849fd43e330af8U, 0x3e6817b3bd1f2631U,
  0x3d39ac8f3e814f08U, 0x3ea276fd3d5432edU, 0xbc9f2631be755ae2U, 0x3e18849abc5432edU,
  0xbe0b416b3ea91895U, 0xbcd432ed3de1761bU, 0xbde1761bbc9f2631U, 0xbe049fd43e5ad484U,
  0x3e98849a3e4d9155U, 0xbeb65bc3be18849aU, 0xbe330af83e6817b3U, 0x3e755ae2bcd432edU,
  0x3dfbfc79bd849fd4U, 0xbc5432edbd39ac8fU, 0xbe4d91553e46efbeU, 0x3c9f2631bd91e303U,
  0x3e049fd43deeb94aU, 0x3e18849a3e98849aU, 0xbde1761b3d9f2631U, 0xbe330af83e18849aU,
  0xbc9f2631be8b416bU, 0x3cd432ed3deeb94aU, 0xbde1761bbdd432edU, 0xbde1761bbea276fdU,
  0xbdd432edbe87f0a0U, 0x3e0b416b3e6817b3U, 0x3e39ac8fbd049fd4U, 0xbf06483abd6eb94aU,
  0xbeafba2cbe46efbeU, 0x3e5432edbe049fd4U, 0xbe814f08beb9ac8fU, 0xbdd432edbe9f2631U,
  0x3de1761bbe7bfc79U, 0xbea5c7c93e755ae2U, 0xbe39ac8fbdb9ac8fU, 0x3d39ac8f3c5432edU,
  0x3dfbfc79be2c6960U, 0x3d91e303bc5432edU, 0x3e46efbebea5c7c9U, 0xbd91e303be0b416bU,
  0xbd5432edbd39ac8fU, 0x3e7bfc7900000000U, 0x3c5432edbe25c7c9U, 0xbe61761b3f528a87U,
  0x3d91e303bec6efbeU, 0xbde1761b3e11e303U, 0x3deeb94abe049fd4U, 0xbe11e3033d39ac8fU,
  0xbe7bfc79be5ad484U, 0x3d9f2631bdeeb94aU, 0x3e61761b3d5432edU, 0x3cd432edbe2c6960U,
  0x3d1f2631be814f08U, 0xbd5432ed3d39ac8fU, 0xbd849fd43c9f2631U, 0xbd5432ed3d849fd4U,
  0x3e4d91553e4d9155U, 0xbdd432edbdc6efbeU, 0xbc5432ed3ee4c6e7U, 0x3f16dc343cd432edU,
  0xbd39ac8f3d91e303U, 0xbe0b416bbe5ad484U, 0xbbd432ed3deeb94aU, 0xbd849fd43e39ac8fU,
  0x3e5ad4843e1f2631U, 0xbbd432edbd39ac8fU, 0xbdb9ac8f3d1f2631U, 0xbd6eb94a3dc6efbeU,
  0xbe814f083e98849aU, 0xbd1f2631be87f0a0U, 0xbf1f26313dac6960U, 0xbd9f26313d1f2631U,
  0xbc9f26313e46efbeU, 0x3f103a9dbd91e303U, 0xbd39ac8f3e9533ceU, 0x3e9bd566be98849aU,
  0xbdd432ed3e4d9155U, 0x3c9f26313e7bfc79U, 0x3d39ac8fbc5432edU, 0xbeb65bc3be2c6960U,
  0xbd1f26313dc6efbeU, 0xbd1f26313d91e303U, 0xbe049fd43d6eb94aU, 0xbd9f26313e46efbeU,
  0x3e814f083ecd9155U, 0xbe18849a3cd432edU, 0xbe9bd566bd39ac8fU, 0xbeb30af83d049fd4U,
  0x3eb30af83deeb94aU, 0x3dfbfc793d39ac8fU, 0x3de1761bbe404e26U, 0x3e849fd43dd432edU,
  0xbc9f2631bd049fd4U, 0x3e6eb94abe2c6960U, 0x3e0b416b3e049fd4U, 0xbe1f2631U,
  0xbcd432ed3e25c7c9U, 0x3e1f26313e11e303U, 0x3d9f2631be049fd4U, 0x3e46efbebeac6960U,
  0x3e5432ed3c9f2631U, 0xbc5432edbc5432edU, 0x3d39ac8f3e4d9155U, 0xbe8e92373e46efbeU,
  0x3e25c7c9be4d9155U, 0xbdb9ac8fbd049fd4U, 0xbd91e303be8b416bU, 0xbe61761b3e7bfc79U,
  0x3edad484bd1f2631U, 0xbe18849abe18849aU, 0xbeb30af83e25c7c9U, 0x3cd432edbd1f2631U,
  0x3deeb94abde1761bU, 0xbe755ae2bd849fd4U, 0xbdeeb94abdc6efbeU, 0xbdfbfc79be39ac8fU,
  0x3bd432edbeeb687eU, 0x3d91e3033e5ad484U, 0x3e25c7c9bd91e303U, 0x3c5432ed3d91e303U,
  0xbe6eb94a3d91e303U, 0xbc9f26313bd432edU, 0xbd849fd43e5ad484U, 0x3d6eb94a3d6eb94aU,
  0xbe6817b3bc9f2631U, 0x3e6eb94abe25c7c9U, 0xbd39ac8fbd39ac8fU, 0x3ea5c7c93e1f2631U,
  0x3e814f08be0b416bU, 0xbe8e923700000000U, 0xbe814f083e4d9155U, 0xbdd432ed3eb30af8U,
  0xbdeeb94abc9f2631U, 0x3cd432edbec39ef2U, 0xbcd432edbeac6960U, 0xbd049fd4bebcfd5bU,
  0x3da07c2abeaa83ecU, 0x3e348bafbf8627cbU, 0xbe8c6ca53e3e9372U, 0xbc207c2a3ef0ba3fU,
  0x3e8768c3bed7a6d8U, 0xbe167467bd489b34U, 0x3e1674673dc89b34U, 0xbe70ba3fbe167467U,
  0x3ebe9372be167467U, 0xbeb48bafbd70ba3fU, 0x3eaa83ecbd70ba3fU, 0xbe167467be52a2f7U,
  0xbe5caab93e348bafU, 0xbeaf87ce3df0ba3fU, 0xbd70ba3f3e5caab9U, 0xbdb48bafbddcaab9U,
  0x3eaa83ec3cf0ba3fU, 0x3cf0ba3f3ca07c2aU, 0x3db48bafU, 0xbd70ba3fbdb48bafU,
  0xbe70ba3fbed2a2f7U, 0x3eb98f90bd489b34U, 0x3da07c2abf83a5daU, 0xbe0c6ca5be967467U,
  0x3e167467bf3209beU, 0xbf9f3b313e5caab9U, 0xbe917086bddcaab9U, 0xbdc89b343e917086U,
  0x3c207c2abe0c6ca5U, 0x3c207c2abe0c6ca5U, 0xbe8264e2U, 0x3d207c2abe348bafU,
  0xbdf0ba3fbc207c2aU, 0x3e0264e23e66b27cU, 0x3db48bafbf0768c3U, 0xbe0264e2bddcaab9U,
  0x3e489b343f0264e2U, 0x3dc89b343cf0ba3fU, 0x3e0264e2be489b34U, 0x3ec397533df0ba3fU,
  0xbdf0ba3fbd489b34U, 0xbe0c6ca5be2a83ecU, 0xbe207c2abe0c6ca5U, 0x3e348bafbe2a83ecU,
  0xbd8c6ca5U, 0xbeb98f90beb48bafU, 0x3da07c2a3d207c2aU, 0xbcf0ba3fbc207c2aU,
  0xbdf0ba3f3eb48bafU, 0xbe207c2abe8264e2U, 0xbc207c2a3db48bafU, 0xbe8768c3bdc89b34U,
  0xbda07c2abdb48bafU, 0xbeb48baf3d70ba3fU, 0xbe3e93723ed2a2f7U, 0x3effc5e3bd207c2aU,
  0xbd489b343ddcaab9U, 0xbcf0ba3fbca07c2aU, 0x3f1674673cf0ba3fU, 0xbd70ba3f3df0ba3fU,
  0xbda07c2abe52a2f7U, 0x3ca07c2abe66b27cU, 0x3e9b78483ca07c2aU, 0x3cf0ba3fbd489b34U,
  0xbcf0ba3f3dc89b34U, 0x3e167467be7ac201U, 0xbeb98f90bca07c2aU, 0x3e2a83ecbea07c2aU,
  0xbca07c2abd489b34U, 0x3dc89b34bd489b34U, 0xbd207c2a3eaf87ceU, 0xbd489b343d489b34U,
  0xbcf0ba3f3e2a83ecU, 0xbdb48baf3e967467U, 0xbca07c2a3d489b34U, 0xbe8264e2bc207c2aU,
  0x3c207c2a3db48bafU, 0x3da07c2a3da07c2aU, 0x3d207c2a3e348bafU, 0x3c207c2abd70ba3fU,
  0x3e9b7848bea07c2aU, 0x3c207c2a3da07c2aU, 0x3ca07c2abcf0ba3fU, 0xbe0c6ca5bcf0ba3fU,
  0xbe1674673e207c2aU, 0xbd489b343e348bafU, 0x3e70ba3fbedcaab9U, 0xbe2a83ecbebe9372U,
  0x3d70ba3fbea07c2aU, 0x3c207c2abca07c2aU, 0xbd8c6ca5beaf87ceU, 0x3db48baf3cf0ba3fU,
  0x3d489b343dc89b34U, 0xbcf0ba3fbd8c6ca5U, 0x3e8c6ca5bcf0ba3fU, 0xbdc89b34bca07c2aU,
  0xbd8c6ca53dc89b34U, 0xbe5caab93da07c2aU, 0x3ca07c2a3c207c2aU, 0x3ca07c2abca07c2aU,
  0xbddcaab9bda07c2aU, 0xbdc89b343ddcaab9U, 0x3dc89b343e0c6ca5U, 0x3d489b34bda07c2aU,
  0x3e2a83ecbd70ba3fU, 0x3ddcaab93e167467U, 0x3cf0ba3f3e207c2aU, 0x3d8c6ca53df0ba3fU,
  0x3c207c2abe967467U, 0x3e3e93723df0ba3fU, 0x3d8c6ca53ed2a2f7U, 0x3cf0ba3fbe0c6ca5U,
  0xbddcaab93d70ba3fU, 0x3da07c2abcf0ba3fU, 0xbc207c2a3e9b7848U, 0x3ddcaab9be348bafU,
  0x3dc89b343ddcaab9U, 0x3d8c6ca53d489b34U, 0x3d489b34bd489b34U, 0x3cf0ba3f3ec39753U,
  0x3e348baf3c207c2aU, 0xbcf0ba3fbc207c2aU, 0x3d8c6ca5be207c2aU, 0xbdc89b34bd8c6ca5U,
  0xbddcaab93d489b34U, 0xbda07c2abe66b27cU, 0xbe9b7848be70ba3fU, 0x3e0c6ca5bdc89b34U,
  0xbd207c2a3da07c2aU, 0xbdf0ba3f3ea07c2aU, 0xbe207c2abcf0ba3fU, 0xbdc89b34bda07c2aU,
  0x3da07c2a3d8c6ca5U, 0x3e3e9372bd207c2aU, 0x3c207c2abe207c2aU, 0x3e2a83ecbe8768c3U,
  0x3df0ba3f3e0264e2U, 0xbd70ba3fbda07c2aU, 0xbd8c6ca5be52a2f7U, 0x3da07c2abc207c2aU,
  0x3d489b343dc89b34U, 0x3d489b343ca07c2aU, 0xbe8c6ca5beb98f90U, 0xbe70ba3fbea07c2aU,
  0xbcf0ba3fbf0eee95U, 0x3d70ba3f3c207c2aU, 0xbe0c6ca5be489b34U, 0xbddcaab93ca07c2aU,
  0x3ca07c2a3e5caab9U, 0x3e5caab9bdc89b34U, 0x3c207c2abe52a2f7U, 0xbdb48baf3d70ba3fU,
  0xbe0c6ca53d70ba3fU, 0x3e489b34bd207c2aU, 0xbe70ba3fbedcaab9U, 0xbdb48bafbea07c2aU,
  0x3df0ba3fbd8c6ca5U, 0xbd489b34be348bafU, 0xbd70ba3fbd489b34U, 0xbda07c2a3cf0ba3fU,
  0xbe00d210be522e50U, 0x3cd8f6003e22b880U, 0xbd58f600be370f90U, 0xbe0e61703e152920U,
  0x3d22b880bd952920U, 0x3df414c0bd3dd740U, 0xbdd8f600bcd8f600U, 0xbe1bf0d03d22b880U,
  0xbe3dd7403da2b880U, 0x3d3dd740bda2b880U, 0xbda2b880be0e6170U, 0x3c58f6003e3dd740U,
  0xbd9529203e298030U, 0xbe0799c0be5fbdb0U, 0xbe6d4d10be8435e8U, 0x3ef414c0be988cf8U,
  0x3d7414c0bdf414c0U, 0xbe370f90be91c548U, 0xbeace4083e8afd98U, 0xbd58f600bbd8f600U,
  0x3e152920bca2b880U, 0xbe0e61703ec802c8U, 0x3df414c0bca2b880U, 0xbdb047e03f0e6170U,
  0xbe8e6170bd3dd740U, 0x3e00d210be22b880U, 0x3e370f903db047e0U, 0xbe0799c0bd22b880U,
  0x3d22b880bdcb66a0U, 0xbca2b880be58f600U, 0x3d3dd740be8435e8U, 0x3e1bf0d03ecb66a0U,
  0xbe3047e0be522e50U, 0xbd58f600be6d4d10U, 0xbe522e50be8e6170U, 0xbdd8f600bd8799c0U,
  0x3e22b880bececa78U, 0x3e22b880bdd8f600U, 0x0U, 0xbcd8f600U,
  0x3e1bf0d0bea61c58U, 0x3e449ef0bda2b880U, 0xbdbdd7403e9bf0d0U, 0x3d9529203d22b880U,
  0xbe449ef03d58f600U, 0xbe0e6170bdcb66a0U, 0x3d3dd740bcd8f600U, 0xbf00d210bde68560U,
  0x3e3047e03d7414c0U, 0xbe00d210be6d4d10U, 0xbe9529203e9f54a8U, 0xbd9529203cd8f600U,
  0x3e8e6170bda2b880U, 0x3bd8f6003e9bf0d0U, 0x3eb047e0be00d210U, 0x3d3dd7403e9bf0d0U,
  0xbe3dd740be8799c0U, 0xbca2b880bd0799c0U, 0x3c58f600be3047e0U, 0xbe1bf0d03e0799c0U,
  0x3e2980303bd8f600U, 0x3da2b880be9bf0d0U, 0xbe58f600be668560U, 0xbca2b8803d3dd740U,
  0xbe449ef0bdf414c0U, 0xbed22e50be0799c0U, 0xbdd8f600be91c548U, 0x3d58f600bef77898U,
  0xbe58f6003cd8f600U, 0x3e22b8803da2b880U, 0x3d7414c0beba7368U, 0x3ea61c583d22b880U,
  0xbd3dd740becb66a0U, 0xbd0799c0bbd8f600U, 0xbe80d2103db047e0U, 0xbe0e61703e152920U,
  0xbd8799c03e80d210U, 0xbe00d210bdcb66a0U, 0xbe370f903e00d210U, 0x3e4b66a0bec802c8U,
  0x3e298030bcd8f600U, 0xbe00d210be0799c0U, 0xbd58f6003e522e50U, 0x3e22b880bc58f600U,
  0xbe668560be5fbdb0U, 0x3e0e61703e6d4d10U, 0xbe7414c03c58f600U, 0x3ca2b8803e5fbdb0U,
  0xbd9529203d3dd740U, 0xbd3dd740be522e50U, 0x3e9bf0d0bdb047e0U, 0xbd8799c0bbd8f600U,
  0xbe4b66a0bd0799c0U, 0xbe6d4d10bd952920U, 0xbe449ef0bca2b880U, 0x3e1bf0d03e449ef0U,
  0xbe80d210be8435e8U, 0x3e80d2103c58f600U, 0xbe6d4d10be8afd98U, 0xbe3047e03c58f600U,
  0x3e7414c03e4b66a0U, 0xbc58f600bca2b880U, 0xbe00d210bdcb66a0U, 0x3cd8f600bea2b880U,
  0x3dd8f600bea2b880U, 0x3e449ef0be80d210U, 0x3ca2b8803d3dd740U, 0xbe00d210bd7414c0U,
  0xbdcb66a0be952920U, 0x3c58f6003e8e6170U, 0x3dd8f600be58f600U, 0xbf5744143bd8f600U,
  0xbe4b66a0be988cf8U, 0xbe152920bd3dd740U, 0xbe8799c0beb3abb8U, 0xbd7414c03da2b880U,
  0xbef0b0e83da2b880U, 0x3eba7368bde68560U, 0x3e370f90be5fbdb0U, 0x3e91c5483e0799c0U,
  0xbd58f600bf370f90U, 0xbe8435e83df414c0U, 0xbe3dd740be668560U, 0xbde685603e00d210U,
  0xbe6d4d103cd8f600U, 0xbda2b880bf10135cU, 0xbe3047e0bdb047e0U, 0xbca2b880be152920U,
  0x3e8435e8bd8799c0U, 0x3e5fbdb0bd22b880U, 0x3eb3abb8bd3dd740U, 0x3ca2b8803d58f600U,
  0xbdd8f600be298030U, 0xbe370f903d3dd740U, 0x3d22b880be370f90U, 0xbdb047e0bdbdd740U,
  0xbe449ef0bd3dd740U, 0xbe449ef0bbd8f600U, 0x3e0e6170be4b66a0U, 0x3ea61c58be152920U,
  0x3dd8f6003d0799c0U, 0xbe8435e8bdd8f600U, 0x3e4b66a000000000U, 0x3db047e03da2b880U,
  0x3e00d2103e449ef0U, 0x3ca2b880bd22b880U, 0x3e0799c0bd952920U, 0x3dcb66a0be22b880U,
  0x3ea2b8803d952920U, 0x3e4b66a0bcd8f600U, 0xbe370f903e00d210U, 0x3c58f600bd0799c0U,
  0x3d8799c03e3dd740U, 0x3e8799c03e449ef0U, 0xbe7414c0bdb047e0U, 0xbc58f600bd952920U,
  0x3e22b8803d8799c0U, 0x3e1bf0d0bec49ef0U, 0xbdf414c03e4b66a0U, 0xbe1bf0d0be58f600U,
  0xbd9d210abe3eccb1U, 0x3ec7379b3d4a05e9U, 0xbde07858be285a42U, 0xbe8111ffbc33937aU,
  0x3e6614f4be4a05e9U, 0xbee8e342beb661c7U, 0xbeb3937a3d9d210aU, 0xbc33937a3db3937aU,
  0x3d4a05e9be8c4b37U, 0x3e91e7d33d1d210aU, 0x3e86ae9bbd86ae9bU, 0x3ec19affbf21567fU,
  0xbe44694dbe6bb190U, 0x3e91e7d3bda85a42U, 0x3e9a52bc3e8f1985U, 0xbd86ae9b3d91e7d3U,
  0xbe8c4b373eccd437U, 0xbe6614f4bdca05e9U, 0xbe1d210a3e9a52bcU, 0xbef41c79U,
  0xbd1d210a3c33937aU, 0x3f0ae4103e285a42U, 0xbea2bda6bdf6eac7U, 0x3e2df6de3c86ae9bU,
  0x3e7c8763bdd53f20U, 0x3ebbfe63bcb3937aU, 0xbe4fa285bc86ae9bU, 0xbe8f19853f03e04dU,
  0x3cb3937a3dbeccb1U, 0x3dca05e93df6eac7U, 0x3d607858be91e7d3U, 0x3e76eac7be8f1985U,
  0xbdd53f20bdb3937aU, 0x3e0c4b37bde07858U, 0xbdb3937abdf6eac7U, 0xbe06ae9b3e33937aU,
  0x3e6bb190be897ce9U, 0xbd33937a3c33937aU, 0xbeccd4373d76eac7U, 0x3cb3937abd86ae9bU,
  0x3ce07858bbb3937aU, 0xbe33937abc33937aU, 0xbd9d210a3d1d210aU, 0xbe33937abd607858U,
  0xbdb3937abebeccb1U, 0x3ce07858bd06ae9bU, 0xbe1d210a3d4a05e9U, 0x3ce078583d4a05e9U,
  0xbea2bda6bce07858U, 0xbd06ae9bbd1d210aU, 0xbd86ae9bbd33937aU, 0xbc86ae9bbce07858U,
  0xbdd53f20bbb3937aU, 0xbe393015be06ae9bU, 0x3e22bda63d4a05e9U, 0xbd06ae9b3de07858U,
  0x3d1d210abd33937aU, 0xbeccd437bd33937aU, 0xbdca05e9be9fef58U, 0xbdbeccb13e0c4b37U,
  0xbbb3937a3dd53f20U, 0x3bb3937abd1d210aU, 0xbc86ae9bbe0c4b37U, 0xbde0785800000000U,
  0x3e17846f3d76eac7U, 0xbe2df6debd06ae9bU, 0x3e33937a3e11e7d3U, 0x3cb3937abe2df6deU,
  0x3db3937aU, 0x3e3eccb13df6eac7U, 0x3e4a05e9be9a52bcU, 0x3d91e7d3be3eccb1U,
  0xbe553f203ecfa285U, 0xbe76eac7bd76eac7U, 0x3d9d210abd9d210aU, 0x3e1d210a3e33937aU,
  0x3db3937a3df6eac7U, 0xbe76eac7bebeccb1U, 0x3db3937abd4a05e9U, 0xbe9a52bc3d4a05e9U,
  0x3e6614f4bd607858U, 0x3d91e7d33d4a05e9U, 0x3e83e04dbd4a05e9U, 0x3debb1903d4a05e9U,
  0x3c86ae9b3c86ae9bU, 0xbd76eac7bc33937aU, 0x3d6078583e44694dU, 0x3df6eac73dd53f20U,
  0xbe33937a3d9d210aU, 0xbc86ae9b3e6bb190U, 0x3debb1903e5adbbcU, 0x3e6bb190be83e04dU,
  0x3e285a423debb190U, 0xbd4a05e93e97846fU, 0xbe0111ff3e4fa285U, 0x3e22bda6bdebb190U,
  0xbd9d210abd06ae9bU, 0x3e06ae9b3d33937aU, 0xbe44694dbd607858U, 0xbd86ae9b3e9fef58U,
  0x3e91e7d3bdd53f20U, 0x3db3937a3da85a42U, 0xbbb3937a3e94b621U, 0xbc86ae9b3ec7379bU,
  0x3db3937abd33937aU, 0x3ec19affbd1d210aU, 0x3bb3937a3ec7379bU, 0x3d1d210a3d91e7d3U,
  0xbd06ae9b3ce07858U, 0xbc86ae9b3e8111ffU, 0x3e285a423e897ce9U, 0xbe17846f3df6eac7U,
  0xbe6614f43e393015U, 0xbd4a05e93dca05e9U, 0x3dd53f203db3937aU, 0x3d33937a3db3937aU,
  0x3eccd437be607858U, 0x3d1d210a3d33937aU, 0x3e9fef58be2df6deU, 0xbd1d210a3e17846fU,
  0x3e06ae9bbdf6eac7U, 0xbe17846f3e06ae9bU, 0xbe9a52bcbe607858U, 0x3e0111ff3ee07858U,
  0x3da85a42be4fa285U, 0x3d86ae9bbd86ae9bU, 0x3e1d210abe897ce9U, 0x3eb661c73ce07858U,
  0xbdca05e93e06ae9bU, 0x3e714e2bbd1d210aU, 0x3e553f20beccd437U, 0x3ce07858bec4694dU,
  0x3bb3937a3dd53f20U, 0x3cb3937abe4a05e9U, 0x3e3930153d9d210aU, 0x3ee8e342bed270d2U,
  0xbe3930153e22bda6U, 0x3e11e7d3be607858U, 0x3e33937abe86ae9bU, 0x3e11e7d3bbb3937aU,
  0x3d76eac7U, 0xbdd53f20bf322c53U, 0x3e76eac7bf1bb9e3U, 0xbd4a05e9be285a42U,
  0xbe83e04d3eb661c7U, 0xbeadf6debe285a42U, 0x3debb190bea58bf4U, 0xbe17846f3e33937aU,
  0x3c33937a3dd53f20U, 0x3d4a05e9be1d210aU, 0xbd1d210a3e6bb190U, 0x3ed270d2bdd53f20U,
  0xbf11e7d33e1d210aU, 0x3dca05e9be1d210aU, 0xbd33937abe7c8763U, 0x3e9d210abd33937aU,
  0x3c86ae9b3e4fa285U, 0xbd76eac73e0c4b37U, 0xbe4fa2853dd53f20U, 0xbbb3937abe11e7d3U,
  0xbdfc5f6f00000000U, 0x3ec1c948bf77ddbbU, 0xbec64afc3e873320U, 0xbdea589e3e1939f1U,
  0xbcd851cd3ec1c948U, 0xbdd851cd3e34442bU, 0xbd1036893c903689U, 0x3e1939f13e1939f1U,
  0xbdd851cd3c103689U, 0x3f1ffc80be2b40c2U, 0x3e9939f13d5851cdU, 0xbebd4794be903689U,
  0xbdd851cd3e3d4794U, 0x3e2b40c23e615536U, 0xbe223d5a3cd851cdU, 0x3d1036893e2b40c2U,
  0x3e2b40c23e3d4794U, 0x3dea589e3eb4442bU, 0x3e82b16c3f1dbba6U, 0x3d5851cdbe7c5f6fU,
  0xbd34442bbecf4e65U, 0xbdb4442b3c103689U, 0xbd5851cdbf5851cdU, 0x3eb4442bbf4f4e65U,
  0x3e9939f1bf5610f3U, 0xbe3d47943cd851cdU, 0xbee5d6eabd103689U, 0x0U,
  0xbeafc2773e7c5f6fU, 0xbe82b16cbdea589eU, 0x3e903689bec64afcU, 0x3e6a589e3f8f161cU,
  0xbd903689bd5851cdU, 0xbe464afc3f007092U, 0x3d5851cd3ea23d5aU, 0xbe82b16c3e223d5aU,
  0xbe9dbba63dd851cdU, 0xbe2b40c23d5851cdU, 0x3dfc5f6fbc103689U, 0x3e073320be464afcU,
  0x3dd851cdbd7c5f6fU, 0x3e34442bbe9939f1U, 0xbe2b40c23c903689U, 0xbe9dbba63e8bb4d5U,
  0xbdb4442bbd7c5f6fU, 0xbf103689bee5d6eaU, 0xbe9939f1be735c07U, 0x3dea589e3c903689U,
  0xbd34442bbec64afcU, 0x3da23d5a3e94b83dU, 0x3dfc5f6fbe073320U, 0xbd903689be8bb4d5U,
  0xbe34442bbe073320U, 0x3d9036893d5851cdU, 0x3d34442b3e5851cdU, 0x3edcd3813cd851cdU,
  0xbe34442b3dd851cdU, 0x3e3d47943cd851cdU, 0x3e103689bcd851cdU, 0xbc9036893d903689U,
  0xbdc64afcbdd851cdU, 0xbe073320bdfc5f6fU, 0xbdb4442b3e2b40c2U, 0xbcd851cdU,
  0xbe464afcbcd851cdU, 0x3db4442b3e615536U, 0xbf223d5a00000000U, 0x3dc64afcbda23d5aU,
  0x3dea589ebd7c5f6fU, 0x3e223d5abd34442bU, 0xbc9036893dfc5f6fU, 0x3db4442bbcd851cdU,
  0x3c9036893e2b40c2U, 0xbcd851cd3e073320U, 0x3cd851cdbd103689U, 0xbf0df5af3dea589eU,
  0xbe2b40c23c903689U, 0xbdc64afc3d7c5f6fU, 0xbc903689bda23d5aU, 0x3db4442bbe073320U,
  0x3d34442b3c903689U, 0x3c9036893d103689U, 0x3dc64afcbcd851cdU, 0x3d5851cdbd34442bU,
  0xbe615536bd5851cdU, 0xbe2b40c23da23d5aU, 0x3dd851cdbedcd381U, 0xbe1939f1bdc64afcU,
  0xbe34442b3e4f4e65U, 0xbc1036893c903689U, 0xbe464afcbe1939f1U, 0xbd7c5f6f3cd851cdU,
  0x3d34442bbdea589eU, 0xbd5851cdbe464afcU, 0x3e464afcbda23d5aU, 0x3d103689be3d4794U,
  0x3d103689be073320U, 0xbd103689bd34442bU, 0xbc103689bdc64afcU, 0xbc1036893e464afcU,
  0xbe223d5a3c903689U, 0xbe3d47943e2b40c2U, 0xbc103689bda23d5aU, 0xbe5851cd3e1939f1U,
  0xbdb4442b3d34442bU, 0xbc1036893dfc5f6fU, 0x3e2b40c2bed851cdU, 0x3d34442b3d5851cdU,
  0xbdb4442b3d103689U, 0x3c103689bd34442bU, 0x3dfc5f6f3e464afcU, 0x3e103689bd903689U,
  0xbd34442b3e2b40c2U, 0xbda23d5abe4f4e65U, 0xbe1036893e94b83dU, 0xbe1939f1be1939f1U,
  0x3d7c5f6f00000000U, 0x3db4442bU, 0xbe2b40c23d5851cdU, 0x3e1036893dd851cdU,
  0x3e2b40c23db4442bU, 0x3d5851cdbe1939f1U, 0x3dc64afcbdd851cdU, 0xbe0733203dc64afcU,
  0xbd9036893d34442bU, 0x3d103689be1939f1U, 0x3c103689be3d4794U, 0x3e1036893e4f4e65U,
  0xbd7c5f6fbd34442bU, 0xbd5851cdbeab40c2U, 0xbf3d4794bda23d5aU, 0xbdea589ebee5d6eaU,
  0x3d7c5f6f3cd851cdU, 0x3d5851cdbe9939f1U, 0xbdc64afcbe5851cdU, 0x3dc64afcbdc64afcU,
  0x3d1036893e073320U, 0x3c903689bdea589eU, 0xbdb4442bbea23d5aU, 0xbea23d5a3dc64afcU,
  0x3d7c5f6f3da23d5aU, 0x3d903689bdfc5f6fU, 0xbe7c5f6fbe6a589eU, 0x3dc64afcbe464afcU,
  0xbe073320bed851cdU, 0x3c903689bd5851cdU, 0xbdea589ebe903689U, 0x3cd851cd3d903689U,
  0xbcd851cd3e1939f1U, 0x3c1036893c103689U, 0xbd103689be34442bU, 0x3d34442bbe735c07U,
  0xbea6bf0ebea6bf0eU, 0xbe9dbba6be903689U, 0xbe1939f13d7c5f6fU, 0x3cd851cdU,
  0x3dfc5f6fbdc64afcU, 0x3e1939f1U, 0xbdea589eU, 0xbe3d4794be4f4e65U,
  0x3e7578133e9e8837U, 0xbeb81a0ebe84f660U, 0x3e6b3dbd3f0784f5U, 0x3f04f660bdcc8ebbU,
  0xbf0b5ad6bed43a7bU, 0xbd4c8ebb3e0f30b6U, 0xbba3a5623d996b0cU, 0xbe0f30b6beca0025U,
  0xbd4c8ebb3eab5123U, 0x3e0f30b63ed1abe6U, 0xbdc25465be705ae8U, 0x3e84f660bda3a562U,
  0x3d84f6603d8f30b6U, 0x3d757813bba3a562U, 0xbf0f30b63e7fb269U, 0xbea8c28dbeb06e4eU,
  0xbdffb269be5be63cU, 0x3e7a953e3e7a953eU, 0x3e2ddfb8be3d373aU, 0x3d996b0cbd23a562U,
  0x3eb81a0e3e04f660U, 0xbe84f6603d84f660U, 0xbe8784f53dcc8ebbU, 0xbdaddfb83e4c8ebbU,
  0x3cf578133ca3a562U, 0x3e5be63cbde10367U, 0xbf0267ca3e91bf4bU, 0xbc23a562bd381a0eU,
  0x3e1e8837bd0f30b6U, 0xbd996b0c3eb2fce3U, 0xbe0f30b6bd84f660U, 0xbefa953e3e4c8ebbU,
  0x3d8f30b63d381a0eU, 0xbd6103673e4c8ebbU, 0xbe4771903ccc8ebbU, 0x3e28c28dbe8784f5U,
  0xbcf578133db81a0eU, 0x3d0f30b6bd381a0eU, 0x3ea3a5623d0f30b6U, 0x3db81a0e3d381a0eU,
  0xbc23a5623d610367U, 0x3e662092bda3a562U, 0xbe477190be04f660U, 0xbba3a562be2ddfb8U,
  0x3de10367U, 0x3e0f30b6bd757813U, 0x3d4c8ebbbe04f660U, 0xbdb81a0ebe196b0cU,
  0x3e32fce33e51abe6U, 0xbdd6c911bd610367U, 0xbdaddfb8bd381a0eU, 0xbd23a5623deb3dbdU,
  0xbd23a5623e996b0cU, 0xbe04f660bdaddfb8U, 0x3ea3a562be9e8837U, 0xbd381a0e3e4c8ebbU,
  0xbdffb269be8ca220U, 0x3e8a138b3d757813U, 0xbe0f30b63d84f660U, 0xbd23a562U,
  0xbc23a562be477190U, 0xbdb81a0eU, 0xbdeb3dbdU, 0xbed43a7bbd4c8ebbU,
  0xbea633f8be1e8837U, 0x3eb58b79bcf57813U, 0xbdeb3dbdbc23a562U, 0xbe0a138b3e6b3dbdU,
  0x3eb81a0e3da3a562U, 0x3dc25465be5be63cU, 0xbe3d373abd757813U, 0x3e381a0e3d381a0eU,
  0x3dd6c911bd610367U, 0x3e91bf4bbdc25465U, 0x3e4c8ebb3e0a138bU, 0x3d0f30b6bd4c8ebbU,
  0xbccc8ebbbe23a562U, 0x3ee391fdbd757813U, 0x3da3a562beaddfb8U, 0xbe84f660bdd6c911U,
  0x3d4c8ebb3e0a138bU, 0x3ba3a562bdf57813U, 0xbe28c28d3ba3a562U, 0x3e4c8ebbbd4c8ebbU,
  0x3e4254653e32fce3U, 0xbd0f30b6bda3a562U, 0xbd23a562bcf57813U, 0x3d996b0cbd4c8ebbU,
  0xbd610367bba3a562U, 0x3d381a0ebf225e17U, 0x3ea8c28d3e8267caU, 0xbe4771903e196b0cU,
  0xbe0a138b3e04f660U, 0xbdf57813bd84f660U, 0xbd23a562be425465U, 0x3e51abe6bdb81a0eU,
  0x3e8784f5be705ae8U, 0x3e2ddfb83ccc8ebbU, 0xbcf57813bdaddfb8U, 0xbd757813bf1d40ecU,
  0xbd996b0cbd381a0eU, 0xbe425465be28c28dU, 0xbdd6c911be8784f5U, 0xbdcc8ebbU,
  0xbe196b0cbdaddfb8U, 0x3ba3a562bda3a562U, 0x3ea3a562bdd6c911U, 0xbcf57813bda3a562U,
  0xbe2ddfb83d996b0cU, 0xbd381a0e3d0f30b6U, 0x3ea633f83daddfb8U, 0x3dc254653ccc8ebbU,
  0xbe32fce33dc25465U, 0xbe51abe63dcc8ebbU, 0xbccc8ebbbe0f30b6U, 0xbd84f660be2ddfb8U,
  0xbeab5123be23a562U, 0xbdb81a0ebeb58b79U, 0x3c23a562bdb81a0eU, 0xbe2ddfb8be8784f5U,
  0x3d996b0cbdaddfb8U, 0xbe944de13d23a562U, 0xbdd6c9113ebfc5cfU, 0xbdf57813be84f660U,
  0xbea3a5623ca3a562U, 0x3db81a0e3e610367U, 0x3dffb269bd610367U, 0x3edbe63cbca3a562U,
  0xbdb81a0ebe4c8ebbU, 0xbdd6c9113de10367U, 0xbe28c28d3d8f30b6U, 0xbe196b0c3e5be63cU,
  0xbdb81a0ebe610367U, 0x3e196b0cbdb81a0eU, 0xbe0a138bbd4c8ebbU, 0xbe84f6603ec25465U,
  0x3e425465bba3a562U, 0xbd23a5623d757813U, 0xbc23a562bc23a562U, 0xbdcc8ebb3dc25465U,
  0xbe381a0ebe04f660U, 0xbe7fb269bdd6c911U, 0x3c23a5623d996b0cU, 0x3ed1abe63e2ddfb8U,
  0xbe1e88373cf57813U, 0xbdeb3dbdbf08cc40U, 0xbea8c28d3c23a562U, 0x3e477190bd757813U,
  0x3ee8af28bdc25465U, 0x3df578133e56c911U, 0x3ca3a5623ca3a562U, 0xbe3d373a3cf57813U,
  0xbe91bf4b3e1e8837U, 0x3e2ddfb8beb58b79U, 0xbe0a138bbe28c28dU, 0xbe9e8837bd381a0eU,
  0x3ec77190bc23a562U, 0x3e0a138bbe8f30b6U, 0x3d996b0cbe7a953eU, 0x3da3a562bf225e17U,
  0xbcfbdda5bd879ebcU, 0x3cfbdda5bc687dd4U, 0xbd41be30bd914ea4U, 0xbdfbdda53d879ebcU,
  0x3cc1be30bc9afe8dU, 0xbc41be30be079ebcU, 0xbd722dbdbd2e5e5fU, 0xbd879ebcbda4ae76U,
  0x3df705b13c879ebcU, 0x3cd51e02bdc69625U, 0xbdd0460ebc9afe8dU, 0xbe0532c1be333653U,
  0xbe0c76b03d7bdda5U, 0x3dbce63cbdb80e48U, 0xbd962699bd914ea4U, 0xbb1afe8dbcd51e02U,
  0xbb9afe8dbd551e02U, 0xbd82c6c7bd9afe8dU, 0xbe9284a1bd380e48U, 0xbd551e02bd9afe8dU,
  0xbbe87dd4bbe87dd4U, 0x3dd51e02bd114ea4U, 0x3d41be30bcae5e5fU, 0xbe114ea43cfbdda5U,
  0xbe5c61f1bd1afe8dU, 0xbcd51e02be6ae9ceU, 0x3d7bdda53be87dd4U, 0xbded55c8bde87dd4U,
  0xbc879ebcbe879ebcU, 0xbd9626993d079ebcU, 0x3d8c76b03d4b6e19U, 0xbd9fd682bbe87dd4U,
  0x3cae5e5fbe8ee2aaU, 0x3e2bf265bcfbdda5U, 0xbe3f5236bdae5e5fU, 0xbe8a0ab63d114ea4U,
  0x3c41be30U, 0xbd41be30be99c890U, 0xbe24ae763ddecdebU, 0xbdbce63cbdf705b1U,
  0x3dd0460ebdfbdda5U, 0xbdd0460ebe7e49a0U, 0xbde87dd43d7bdda5U, 0xbd079ebcbe3f5236U,
  0xbe29866abd114ea4U, 0xbd9afe8dbd687dd4U, 0xbdae5e5f00000000U, 0x3d7bdda53e22427cU,
  0x3d914ea4bd079ebcU, 0xbe4dda14be333653U, 0xbe114ea43d962699U, 0xbbe87dd4be7705b1U,
  0xbd722dbdbc41be30U, 0x3dbce63c3e3f5236U, 0x3d8c76b03d687dd4U, 0xbe4696253cae5e5fU,
  0xbe8190cabc879ebcU, 0xbb1afe8dbe189293U, 0x3be87dd4bd24ae76U, 0xbe2e5e5fbdb80e48U,
  0xbe0ee2aabe41be30U, 0xbd9afe8dbd079ebcU, 0x3c879ebcbdfbdda5U, 0xbd551e02bce87dd4U,
  0x3d5ecdebbe271a70U, 0x3d7bdda5bc1afe8dU, 0x3ddecdebbd079ebcU, 0xbe4b6e19bb9afe8dU,
  0x3df705b1bda9866aU, 0xbe162699be3f5236U, 0x3be87dd4bc879ebcU, 0xbdd0460e3d879ebcU,
  0xbb1afe8dbd4b6e19U, 0xbdb80e48be2bf265U, 0xbe805acd00000000U, 0x3d079ebcbe4dda14U,
  0xbe30ca59bcae5e5fU, 0xbe162699be114ea4U, 0xbd9fd682be005acdU, 0xbd551e023e49021fU,
  0x3d41be303d4b6e19U, 0xbded55c8bd5ecdebU, 0xbe3336533c41be30U, 0xbd9afe8dbdbce63cU,
  0xbd380e48bdc69625U, 0x3d380e483e114ea4U, 0x3d079ebc3dbce63cU, 0xbde87dd43d2e5e5fU,
  0xbe6d55c83e13ba9fU, 0xbd9afe8dbe0c76b0U, 0x3d914ea43b9afe8dU, 0xbe442a2b3d8c76b0U,
  0xbda4ae76be3a7a42U, 0xbdd9f5f73cfbdda5U, 0x3d41be303d914ea4U, 0x3cfbdda5bd9fd682U,
  0xbdf705b1be271a70U, 0x3b1afe8dbdb33653U, 0x3d114ea4be82c6c7U, 0xbe8a0ab63e22427cU,
  0xbdae5e5f3e24ae76U, 0xbdfbdda5be189293U, 0xbde3a5df3d914ea4U, 0xbcae5e5fbc9afe8dU,
  0x3e3f5236bde87dd4U, 0xbc1afe8dbe59f5f7U, 0xbe35a24d3d722dbdU, 0x3d2e5e5fbe7e49a0U,
  0xbe59f5f7bd8c76b0U, 0xbd9afe8dbd2e5e5fU, 0x3d079ebcbd879ebcU, 0xbcc1be303e41be30U,
  0x3da4ae763d722dbdU, 0xbe722dbdbd962699U, 0xbcc1be30bd114ea4U, 0xbd9fd682bdcb6e19U,
  0xbe1afe8dbe2bf265U, 0x3e1fd6823db80e48U, 0xbbe87dd43db33653U, 0xbc41be30bdbce63cU,
  0xbe1d6a873d687dd4U, 0xbe079ebcbde3a5dfU, 0xbd114ea4bd962699U, 0xbbe87dd4bd8c76b0U,
  0xbe079ebcbe13ba9fU, 0xbe02c6c7bdb33653U, 0x3e6ae9ce3e2e5e5fU, 0x3c9afe8d3ce87dd4U,
  0xbde87dd4be49021fU, 0xbd722dbd3e5789fcU, 0x3e6fc1c2bdc1be30U, 0xbe551e023be87dd4U,
  0xbdd0460ebcc1be30U, 0xbc1afe8dbe9018a7U, 0xbc687dd400000000U, 0xbd9fd682bdcb6e19U,
  0xbe0a0ab6U, 0x3cc1be30be5789fcU, 0xbe13ba9fbe0ee2aaU, 0xbb9afe8dbe1d6a87U,
  0xbd722dbd3cae5e5fU, 0xbe1afe8dbe333653U, 0x3d41be30bdd9f5f7U, 0xbcfbdda53da4ae76U,
  0xbdcb6e193d9fd682U, 0xbddecdebbdb80e48U, 0xbd879ebcbd9fd682U, 0x3d079ebcbd380e48U,
  0xbe4dda143cfbdda5U, 0xbcd51e023c41be30U, 0xbdf22dbd3d114ea4U, 0x3c9afe8dbcd51e02U,
  0xbd879ebc3df22dbdU, 0x3d380e483d079ebcU, 0x3be87dd43dd9f5f7U, 0x3c9afe8dbdd0460eU,
  0xbdd0460ebe162699U, 0xbe24ae76bd114ea4U, 0x3e1626993e005acdU, 0x3d41be303d551e02U,
  0x3e9ab38c3e02465bU, 0x3d436989be63fb20U, 0xbe02465b3e02465bU, 0x3d02465b3d436989U,
  0xbda2d7f2bde3fb20U, 0x3de3fb203e7443ebU, 0xbc82465b3e436989U, 0x3e22d7f2bd436989U,
  0xbd43698900000000U, 0xbda2d7f200000000U, 0x3d82465b3e63fb20U, 0xbd4369893dc36989U,
  0xbc82465bbdc36989U, 0x3e9ab38cU, 0xbe436989bdc36989U, 0x3c82465b3de3fb20U,
  0x3e3320bdbd82465bU, 0x3dc369893d02465bU, 0xbc82465b3da2d7f2U, 0xbd82465b3e436989U,
  0xbe128f27U, 0xbe22d7f2U, 0xbc82465bbd82465bU, 0x3d02465bbe02465bU,
  0x3e22d7f2be53b254U, 0xbecb8def3e22d7f2U, 0xbdc369893e22d7f2U, 0xbd02465b3da2d7f2U,
  0xbd02465b3e436989U, 0xbd4369893dc36989U, 0xbd82465bbdc36989U, 0xbe3320bd3dc36989U,
  0xbd82465b3c82465bU, 0x3d02465b3e7443ebU, 0x3e7443eb3dc36989U, 0x3d82465b3d436989U,
  0xbe82465bbe436989U, 0x3e02465b3e3320bdU, 0x3d82465bbfe3fb20U, 0x3d82465b3da2d7f2U,
  0xbd4369893e53b254U, 0x3e128f27bc82465bU, 0x3e3320bdbfc36989U, 0xbd82465b3e82465bU,
  0x3da2d7f2bc82465bU, 0xbe22d7f2bc82465bU, 0x3d436989bd82465bU, 0x3d02465b3c82465bU,
  0xbd82465b00000000U, 0x3d4369893de3fb20U, 0x3e7443eb3e128f27U, 0x3e128f27bc82465bU,
  0x3de3fb20bdc36989U, 0xbde3fb20bc82465bU, 0xbda2d7f2be128f27U, 0xbde3fb203e9ab38cU,
  0x3e128f273e3320bdU, 0x3e3320bd3e02465bU, 0x3c82465bU, 0x3d02465bbe436989U,
  0x3dc36989bd02465bU, 0xbc82465bbd82465bU, 0xbe4369893de3fb20U, 0xbc82465bbd82465bU,
  0xbd82465b3e3320bdU, 0xbe7443ebbf16a15aU, 0xbeb320bdbdc36989U, 0x3e02465b3c82465bU,
  0xbde3fb20bdc36989U, 0x3e3320bd3de3fb20U, 0x3d82465b3c82465bU, 0x3de3fb20bda2d7f2U,
  0xbe128f273c82465bU, 0xbd4369893e8a6ac1U, 0x3da2d7f23e9ab38cU, 0xbeec1f85bd02465bU,
  0x3d82465b3e82465bU, 0x3c82465b3e63fb20U, 0xbe3320bd3d436989U, 0xbd82465bbe22d7f2U,
  0x3d436989be02465bU, 0xbd02465bbd436989U, 0xbdc369893e02465bU, 0xbd4369893c82465bU,
  0x3c82465bbe436989U, 0x3de3fb20be22d7f2U, 0x3de3fb20bf6c1f85U, 0xbd82465bbe3320bdU,
  0x3e3320bdbeec1f85U, 0xbe82465b3d02465bU, 0xbe3320bd3c82465bU, 0xbde3fb20be128f27U,
  0x3d02465b3da2d7f2U, 0x3d82465b3d82465bU, 0xbe63fb203d436989U, 0xbd4369893c82465bU,
  0x3e63fb20U, 0xbdc369893e63fb20U, 0x3e22d7f2bde3fb20U, 0x3e02465bbd02465bU,
  0xbe63fb20bda2d7f2U, 0xbe02465b3e53b254U, 0x3d02465bbf0e7cf4U, 0x3e3320bdbe128f27U,
  0xbd82465bbde3fb20U, 0xbe22d7f23e436989U, 0x3eaafc58bebb4523U, 0x3c82465b3e3320bdU,
  0x3e22d7f2bda2d7f2U, 0xbe128f273d02465bU, 0x3e02465b00000000U, 0x3e436989bd02465bU,
  0xbe53b2543dc36989U, 0xbdc369893dc36989U, 0x3d02465b3e22d7f2U, 0xbd82465b3da2d7f2U,
  0xbd02465bbc82465bU, 0xbde3fb20beb320bdU, 0x3d02465b00000000U, 0x3de3fb203e3320bdU,
  0x3ebb45233e02465bU, 0x3e9ab38cbc82465bU, 0x3e02465bbec36989U, 0xbda2d7f2be63fb20U,
  0x3dc369893eaafc58U, 0x3e128f27bd82465bU, 0xbe82465b3c82465bU, 0x3dc36989bdc36989U,
  0xbe53b2543de3fb20U, 0x3d436989be63fb20U, 0xbd43698900000000U, 0x3e928f27bc82465bU,
  0xbd82465bbe22d7f2U, 0x3c82465b3dc36989U, 0x3e22d7f23dc36989U, 0x3d43698900000000U,
  0x3de3fb203d02465bU, 0xbe02465b3e8a6ac1U, 0x3e82465b3de3fb20U, 0xbefc68513d02465bU,
  0x3d4369893e128f27U, 0xbe128f273e53b254U, 0xbea2d7f23de3fb20U, 0xbe02465bbe02465bU,
  0x3d02465bbf3732f0U, 0x3d4369893d02465bU, 0xbda2d7f23d82465bU, 0xbda2d7f23e22d7f2U,
  0xbd436989be22d7f2U, 0xbda2d7f2bd82465bU, 0xbd436989c00141cfU, 0xbe53b254bc82465bU,
  0xbe928f27U, 0xbda2d7f23dc36989U, 0x3d436989bda2d7f2U, 0xbdc36989bdc36989U,
  0xbd02465b3e8a6ac1U, 0x3d02465b3d436989U, 0xbd02465bbdc36989U, 0xbd02465bbd02465bU,
  0x3dc6d40cbd6e980fU, 0x3dee980fbe186f5fU, 0xbd8b2e093d6156b9U, 0xbdb2f20b3c1f100aU,
  0xbdb2f20bbe07ddb3U, 0x3dac5160be67f764U, 0xbe1f100abd91ceb4U, 0xbcb992b6be11ceb4U,
  0x3d3992b6be32f20bU, 0xbd9f100a3cee980fU, 0x3d46d40c3d11ceb4U, 0xbdc03361bd91ceb4U,
  0x3d1f100abc9f100aU, 0x3e46d40c3c9f100aU, 0x3e25b0b5bd541563U, 0x3d7bd9653e541563U,
  0x3b541563be07ddb3U, 0xbdc03361bdc6d40cU, 0xbd6156b93d8b2e09U, 0xbdc6d40cbd11ceb4U,
  0xbb5415633dfbd965U, 0x3cd41563bc9f100aU, 0x3e11ceb4be403361U, 0x3c541563be46d40cU,
  0x3cb992b6be0b2e09U, 0xbe07ddb3be0b2e09U, 0x3d9f100abd46d40cU, 0xbdac51603cd41563U,
  0x3d9f100abe1bbfb4U, 0x3d7bd9653d6e980fU, 0x3dee980fbc1f100aU, 0xbda5b0b5bd048d5eU,
  0xbdc03361bd6156b9U, 0xbddab60e3dc03361U, 0x3d6e980fbc1f100aU, 0xbc1f100a3d7bd965U,
  0xbe25b0b5bd11ceb4U, 0xbc848d5e00000000U, 0xbe7538babd6156b9U, 0xbdb2f20b3e403361U,
  0xbe71e8643e5765b8U, 0x3d7bd9653db2f20bU, 0xbd048d5e3c9f100aU, 0x3c1f100a3cb992b6U,
  0xbd46d40c3e3ce30cU, 0xbe8e7e5ebe3992b6U, 0x3c5415633dcd74b7U, 0x3e4383b73dcd74b7U,
  0x3d8b2e093e07ddb3U, 0x3c1f100abdc03361U, 0x3d8b2e093e151f09U, 0xbcb992b6bd7bd965U,
  0x3ddab60ebe364261U, 0x3e9bbfb4bd848d5eU, 0x3db992b63d8b2e09U, 0x3d8b2e093e1bbfb4U,
  0x3c848d5e3e048d5eU, 0x3e2c5160bd048d5eU, 0x3e67f764bd7bd965U, 0x3d7bd96500000000U,
  0x3dee980fbddab60eU, 0x3d048d5ebd7bd965U, 0x3b5415633e8985deU, 0x3e50c50d3d3992b6U,
  0x3d9f100abe186f5fU, 0x3e4d74b7bddab60eU, 0xbd11ceb4be32f20bU, 0xbe5e06633e4a2462U,
  0x3e1f100abcee980fU, 0xbdee980f3d048d5eU, 0xbc848d5e3e67f764U, 0xbd3992b6be07ddb3U,
  0x3d986f5fbdf538baU, 0x3c848d5ebe6b47b9U, 0x3d6156b93e25b0b5U, 0xbe1bbfb43b541563U,
  0xbd11ceb4bd848d5eU, 0x3cd415633e32f20bU, 0x3d048d5ebd46d40cU, 0xbc848d5e3d7bd965U,
  0xbd986f5f3db2f20bU, 0xbe403361be1f100aU, 0x3e0e7e5ebd048d5eU, 0xbe32f20bbd6e980fU,
  0xbcb992b6be50c50dU, 0x3ea9010b3cd41563U, 0x3dc03361be32f20bU, 0x3e2fa1b63d9f100aU,
  0xbe22605fbde7f764U, 0xbe25b0b53e4a2462U, 0xbdcd74b73c1f100aU, 0x3e048d5e3ea5b0b5U,
  0xbdf538babe0e7e5eU, 0x3d541563be4d74b7U, 0x3d8b2e093e3992b6U, 0xbdcd74b73c1f100aU,
  0x3de156b9bc9f100aU, 0x3e5765b83de7f764U, 0x3e4033613dac5160U, 0xbbd415633d1f100aU,
  0xbcee980f3e4a2462U, 0x3dcd74b73c848d5eU, 0xbe2c5160bd3992b6U, 0x3d91ceb43dc03361U,
  0xbe22605f3cb992b6U, 0x3d8b2e093c848d5eU, 0xbc541563bd986f5fU, 0x3ea9010b3e048d5eU,
  0xbdb2f20bbe186f5fU, 0xbdc6d40c3d1f100aU, 0x3e186f5f3d6156b9U, 0x3d6156b93d8b2e09U,
  0xbe3992b63e541563U, 0x3d986f5f3d848d5eU, 0x3d986f5fbd2c5160U, 0x3e0b2e093c1f100aU,
  0x3c1f100abe403361U, 0xbd6156b93d91ceb4U, 0xbdfbd9653e8e7e5eU, 0x3e87ddb33d848d5eU,
  0x3e8cd6333dfbd965U, 0x3e0e7e5e3de7f764U, 0x3e07ddb3bc9f100aU, 0x3dfbd965bd6156b9U,
  0x3ddab60ebde7f764U, 0xbcb992b6bd848d5eU, 0xbd5415633db2f20bU, 0x3e3642613e91ceb4U,
  0x3e1bbfb43dee980fU, 0xbdac5160bcee980fU, 0x3e07ddb33dc6d40cU, 0x3bd41563bcb992b6U,
  0x3da5b0b53dc03361U, 0xbddab60e3d541563U, 0x3cb992b63d8b2e09U, 0x3c848d5e3dac5160U,
  0x3e29010b3e6156b9U, 0xbd5415633dac5160U, 0x3d2c5160bd7bd965U, 0xbe11ceb4bda5b0b5U,
  0x3e2c5160bc1f100aU, 0xbd986f5f3c9f100aU, 0xbcd41563be863588U, 0xbbd415633e11ceb4U,
  0x3e151f09be11ceb4U, 0x3e048d5e3e6156b9U, 0x3ed26d38be9376dfU, 0xbdfbd9653e3992b6U,
  0xbe32f20b3da5b0b5U, 0xbdee980fbe9bbfb4U, 0x3d91ceb4bdc03361U, 0x3c848d5ebe151f09U,
  0x3d8b2e09bd1f100aU, 0xbe4033613e4383b7U, 0xbe9bbfb43cd41563U, 0x3ea9010bbcee980fU,
  0xbd6e980f3d3992b6U, 0x3bd41563bcd41563U, 0x3dfbd9653e848d5eU, 0xbbd41563be813d08U,
  0x3e24169cbc49f471U, 0x3d177755be7c718dU, 0xbe5693b83e30b5e3U, 0xbd1777553dc9f471U,
  0xbcc9f4713d49f471U, 0xbd9777553e24169cU, 0x3d49f4713d177755U, 0x3e24169cbdb0b5e3U,
  0x3d49f4713cc9f471U, 0xbd49f471be0ad80eU, 0xbd1777553e9127b1U, 0x3cc9f4713db0b5e3U,
  0xbd177755bde332ffU, 0x3c49f4713e9127b1U, 0xbec9f471be6fd246U, 0xbdfc718d3e24169cU,
  0x3e6fd246be5693b8U, 0x3e1777553dc9f471U, 0x3cc9f4713e0ad80eU, 0x3cc9f4713dc9f471U,
  0xbcc9f47100000000U, 0xbd177755be0ad80eU, 0xbd977755bd177755U, 0x3d7c718dbd977755U,
  0x3cc9f471bec3a4cdU, 0xbed693b83d977755U, 0xbe30b5e33e977755U, 0x3c49f471bd49f471U,
  0x3d1777553e7c718dU, 0xbe49f4713d49f471U, 0xbdb0b5e3be30b5e3U, 0xbe30b5e33edce35cU,
  0x3dc9f471bcc9f471U, 0x3d49f4713dfc718dU, 0x3e84886a3e177755U, 0xbdc9f4713dfc718dU,
  0xbe6fd246be0ad80eU, 0xbc49f4713c49f471U, 0x3db0b5e3bfc86088U, 0x3de332ffbd49f471U,
  0xbdfc718d3d7c718dU, 0x3d7c718dbd7c718dU, 0x3de332ffbfc6cc9fU, 0xbc49f4713e7c718dU,
  0x3d177755bd49f471U, 0xbe7c718dbe5693b8U, 0xbd7c718dbdfc718dU, 0xbcc9f471bcc9f471U,
  0xbc49f4713cc9f471U, 0xbdc9f4713db0b5e3U, 0x3e30b5e33db0b5e3U, 0x3c49f471be30b5e3U,
  0x3d49f471be49f471U, 0xbe0ad80e3e0ad80eU, 0xbe3d552abd177755U, 0x3d1777553e9dc6f8U,
  0x3e24169c3de332ffU, 0x3e84886a3e177755U, 0x3d49f471bd177755U, 0xbe49f471U,
  0x3e177755bd49f471U, 0xbcc9f471bd177755U, 0xbdb0b5e33c49f471U, 0xbd7c718dU,
  0xbd49f4713de332ffU, 0x3d7c718dbf0ad80eU, 0xbe9127b1bd7c718dU, 0x3e5693b83dc9f471U,
  0xbe6fd246be30b5e3U, 0x3e3d552a3e84886aU, 0x3e30b5e3bd7c718dU, 0x3d7c718d3d977755U,
  0xbc49f4713db0b5e3U, 0x3de332ff3e8ad80eU, 0x3dfc718d3e6332ffU, 0xbf273e6e3dfc718dU,
  0xbd49f4713de332ffU, 0xbd1777553e0ad80eU, 0xbe8ad80e3db0b5e3U, 0x3c49f471bd977755U,
  0x3de332ff3c49f471U, 0x3c49f471bde332ffU, 0xbd1777553d977755U, 0xbd49f4713dfc718dU,
  0xbdfc718dbd177755U, 0x3e7c718dbe0ad80eU, 0x3dfc718dbf6982a3U, 0xbd49f471bdfc718dU,
  0x3d977755bee982a3U, 0xbe6fd246bd7c718dU, 0xbd977755bd177755U, 0xbdfc718dbd49f471U,
  0xbcc9f471bd177755U, 0xbd9777553e24169cU, 0xbe0ad80ebd7c718dU, 0xbd49f47100000000U,
  0xbd7c718d3cc9f471U, 0x3e8ad80eU, 0x3cc9f471bdc9f471U, 0xbd7c718d3de332ffU,
  0xbd977755bd49f471U, 0xbdc9f4713dc9f471U, 0x3db0b5e3bf1dc6f8U, 0x3d49f471be49f471U,
  0xbd977755be3d552aU, 0xbe24169cbc49f471U, 0x3e5693b8be9dc6f8U, 0x3e9127b1U,
  0x3c49f471bde332ffU, 0xbcc9f4713db0b5e3U, 0x3e0ad80e3cc9f471U, 0x3d7c718dbe84886aU,
  0xbcc9f4713e5693b8U, 0xbe5693b8bdc9f471U, 0xbd49f47100000000U, 0x3d49f471bc49f471U,
  0x3d7c718d3c49f471U, 0xbe84886aU, 0xbd177755bcc9f471U, 0x3dfc718d3e3d552aU,
  0x3e7c718d00000000U, 0x3e6332ff3d977755U, 0x3e24169cbe9dc6f8U, 0xbdb0b5e3be8ad80eU,
  0x3e49f4713e30b5e3U, 0x3e0ad80ebd7c718dU, 0xbe30b5e33dc9f471U, 0x3c49f471be30b5e3U,
  0xbe1777553dc9f471U, 0xbd49f471be6332ffU, 0xbe49f471bc49f471U, 0x3eb70586bd977755U,
  0xbc49f471be49f471U, 0x3cc9f4713e3d552aU, 0x3d49f4713cc9f471U, 0x3d977755bd977755U,
  0x3e3d552a3de332ffU, 0xbd9777553e9127b1U, 0x3e6332ff3d977755U, 0xbed693b8bd49f471U,
  0x3e0ad80e3de332ffU, 0x3d7c718d3e24169cU, 0xbe6332ff3e7c718dU, 0xbe3d552abe84886aU,
  0xbd177755bed04414U, 0x3d49f4713dc9f471U, 0x3dc9f471U, 0xbe7c718d3e177755U,
  0x0U, 0xbdb0b5e3be49f471U, 0x3e30b5e3bfc538b6U, 0xbea4169cbe0ad80eU,
  0x3e30b5e3bea4169cU, 0x3c49f471bcc9f471U, 0xbd977755be24169cU, 0xbd7c718dbdb0b5e3U,
  0x3d1777553e3d552aU, 0x3db0b5e33e177755U, 0xbd49f4713c49f471U, 0x3de332ffbe30b5e3U,
  0xbe9763e8bce6b09eU, 0x3dbb6f81bdbb6f81U, 0xbe49da8abd49da8aU, 0xbbe6b09e3cad0477U,
  0x3d902e63bd102e63U, 0xbe81c359bdbb6f81U, 0x3d49da8abd66b09eU, 0xbe51100f3d902e63U,
  0xbeea4b613be6b09eU, 0x3de6b09e3c66b09eU, 0xbd66b09ebe81c359U, 0xbd102e63be1763e8U,
  0x3d2d04773eea4b61U, 0xbd102e633dc9da8aU, 0xbdd8459400000000U, 0x3ea969b4bbe6b09eU,
  0x3effebf03e9763e8U, 0xbbe6b09e3e2d0477U, 0x3d902e63bed1100fU, 0xbe9e996dbde6b09eU,
  0xbdad0477bdc9da8aU, 0x3eb439fc3e81c359U, 0xbe5f7b19bf5f7b19U, 0xbce6b09ebee6b09eU,
  0xbbe6b09ebf39a21fU, 0xbeb09f393ec9da8aU, 0xbf64e33dbd2d0477U, 0x3dad04773ef51ba8U,
  0xbe93c925bd102e63U, 0xbd2d0477beb7d4beU, 0xbc66b09ebec2a506U, 0x3de6b09ebdbb6f81U,
  0xbc66b09ebc66b09eU, 0xbe51100fbe2d0477U, 0x3dc9da8abc66b09eU, 0xbe1763e83be6b09eU,
  0xbf072b7dbedf7b19U, 0x3d2d0477be08f8deU, 0xbe7c512dbe584594U, 0x3ea2342fbee6b09eU,
  0xbdbb6f81bdc9da8aU, 0xbe51100fbde6b09eU, 0xbecd754dbe66b09eU, 0x3ee315dcbe49da8aU,
  0xbdf51ba83be6b09eU, 0x3d81c359bef51ba8U, 0xbedf7b193d902e63U, 0xbf11fbc4be25cef2U,
  0x3d102e63bd9e996dU, 0x3dd84594be01c359U, 0xbd49da8abe66b09eU, 0xbedbe057be25cef2U,
  0x3ebb6f813dbb6f81U, 0xbdf51ba8bdad0477U, 0xbe08f8de3de6b09eU, 0x3e5845943cad0477U,
  0xbdd84594bd902e63U, 0x3ea969b4be93c925U, 0xbcad04773d2d0477U, 0xbde6b09e3ef8b66bU,
  0x3e2d0477bd66b09eU, 0xbdc9da8a3e08f8deU, 0xbebb6f813d102e63U, 0xbbe6b09ebbe6b09eU,
  0xbe9763e8bd102e63U, 0xbeb7d4beU, 0x3d66b09e3be6b09eU, 0xbc66b09e3e1e996dU,
  0xbdd84594be3439fcU, 0x3d81c359be25cef2U, 0xbf08f8de3f072b7dU, 0x3e9763e83dd84594U,
  0x3d66b09e3e3439fcU, 0x3d66b09e3d902e63U, 0x3e3439fc3e08f8deU, 0xbe08f8debd902e63U,
  0xbe3b6f813e81c359U, 0xbd49da8abd9e996dU, 0xbd2d04773e25cef2U, 0x3e51100f3d2d0477U,
  0xbe1763e8U, 0x3ce6b09e3c66b09eU, 0xbd102e633e1763e8U, 0x3e102e63be42a506U,
  0xbe855e1bbe01c359U, 0x3e5f7b193dc9da8aU, 0x3d9e996dbd81c359U, 0xbd9e996d3e08f8deU,
  0x3d66b09e3e42a506U, 0x3e902e633dbb6f81U, 0xbe08f8deU, 0xbe3b6f81bce6b09eU,
  0x3d9e996d3e902e63U, 0xbe2d04773d902e63U, 0x3cad04773d102e63U, 0x3cad04773dbb6f81U,
  0xbe08f8debcad0477U, 0x3dad04773e855e1bU, 0x3d49da8abe81c359U, 0xbe2d0477be7c512dU,
  0x3e855e1b3d81c359U, 0x3dad0477bdad0477U, 0x3e01c359be9763e8U, 0x3d902e633d49da8aU,
  0x3d49da8abdf51ba8U, 0x3d66b09e3c66b09eU, 0x3e3b6f81bea5cef2U, 0xbde6b09ebdbb6f81U,
  0xbd49da8abe751ba8U, 0x3d49da8abea5cef2U, 0x3dbb6f81bc66b09eU, 0x3dd845943d902e63U,
  0x3de6b09ebdbb6f81U, 0xbdf51ba83c66b09eU, 0xbd2d04773cad0477U, 0xbd9e996dbe42a506U,
  0xbe81c3593e102e63U, 0x3d81c3593e855e1bU, 0xbe1763e8bd9e996dU, 0x3df51ba83d102e63U,
  0x3d66b09ebce6b09eU, 0x3ce6b09ebc66b09eU, 0x3ead04773c66b09eU, 0xbd9e996d3e01c359U,
  0xbe51100fbd102e63U, 0xbe88f8debe81c359U, 0x3e08f8de3d902e63U, 0x3be6b09e3e3b6f81U,
  0xbe2d0477bce6b09eU, 0xbd102e63bec2a506U, 0x3ead04773cad0477U, 0xbdd845943e49da8aU,
  0xbe855e1b3e66b09eU, 0x3e01c3593e3439fcU, 0xbe2d04773e102e63U, 0x3e855e1b3c66b09eU,
  0xbd102e63bd2d0477U, 0x3df51ba8be8c93a0U, 0xbd9e996d3ec63fc8U, 0xbd2d04773e1763e8U,
  0xbdd84594be25cef2U, 0x3dbb6f813e66b09eU, 0x3dbb6f81bdd84594U, 0xbec9da8a3e25cef2U,
  0xbd9e996dbe88f8deU, 0xbdf51ba8bbe6b09eU, 0xbd49da8abe2d0477U, 0xbebf0a43bd2d0477U,
  0xbe3b6f81be51100fU, 0x3e08f8debdd84594U, 0x3be6b09ebbe6b09eU, 0x3e93c9253df51ba8U,
  0xbce6b09ebf1e996dU, 0xbd2d0477bdc9da8aU, 0x3d902e63be49da8aU, 0xbd9e996dbdc9da8aU,
  0xbdbb6f81be88f8deU, 0xbe5f7b19bf0ac63fU, 0xbd902e633e1e996dU, 0x3d902e633e3439fcU,
  0x3e4d2c353cf32aeaU, 0x3e54c58dbee7c4e7U, 0xbe54c58d3dc592deU, 0xbcf32aea3e97fad2U,
  0x3dc592de3e4d2c35U, 0xbcf32aea3c732aeaU, 0x3cf32aea3d732aeaU, 0x3e732aea3e272d81U,
  0xbdc592debbf32aeaU, 0xbde3f83bbde3f83bU, 0x3e4592de3e5c5ee4U, 0x3cb66030be17fad2U,
  0xbdb660303c732aeaU, 0x3e4592de3df32aeaU, 0xbe84fb783dd4c58dU, 0xbd732aea3cf32aeaU,
  0x3e3df987bed89238U, 0x3e3df9873e5c5ee4U, 0x3d3660303e3df987U, 0xbe942e273d366030U,
  0x3cb66030bdb66030U, 0x3e5c5ee4be54c58dU, 0xbd366030bf04fb78U, 0x3e10617bbedc5ee4U,
  0x3d88c824bf031522U, 0xbf08c8243e54c58dU, 0xbd3660303e54c58dU, 0xbd3660303d97fad2U,
  0xbda72d813d366030U, 0x3c732aea3cb66030U, 0xbda72d81bd88c824U, 0x3c732aea3ebdf987U,
  0x3c732aea3e08c824U, 0xbbf32aea3e3df987U, 0x3e4592de3d366030U, 0xbe17fad23eaec6d8U,
  0xbe17fad2bcf32aeaU, 0xbda72d8100000000U, 0xbda72d81bf5e453aU, 0xbd732aeabd88c824U,
  0xbe3df987bc732aeaU, 0x3e84fb78bd54c58dU, 0xbd732aeabf477934U, 0xbe3660303e6b9193U,
  0xbdb66030be08c824U, 0xbd732aeabe812eccU, 0xbbf32aeabdd4c58dU, 0xbdd4c58dbdb66030U,
  0xbe942e27bbf32aeaU, 0x3d366030bcf32aeaU, 0xbd97fad23d54c58dU, 0xbc732aeabe942e27U,
  0xbd54c58dbcf32aeaU, 0xbdc592de3e732aeaU, 0xbeaafa2d3d97fad2U, 0x3e4592de3de3f83bU,
  0xbcb66030bbf32aeaU, 0x3e812eccbcb66030U, 0x3db66030bde3f83bU, 0xbe1f942a3e63f83bU,
  0xbd366030bc732aeaU, 0x3cb66030be2ec6d8U, 0xbe08c824bcb66030U, 0xbd732aea3d17fad2U,
  0xbe2ec6d83e012eccU, 0x3df32aeabf031522U, 0xbe2ec6d83cf32aeaU, 0x3dc592de3bf32aeaU,
  0xbd54c58dbd54c58dU, 0x3cb660303d732aeaU, 0x3d54c58dbe08c824U, 0x3d97fad23da72d81U,
  0x3c732aeabcb66030U, 0x3e2ec6d83cb66030U, 0x3dd4c58dbe2ec6d8U, 0xbf0aae79bd97fad2U,
  0xbd3660303e3df987U, 0x3e012ecc3d88c824U, 0xbe17fad2bda72d81U, 0x3d17fad2be08c824U,
  0x3e5c5ee4be08c824U, 0xbcf32aea3d17fad2U, 0xbcf32aeabd54c58dU, 0xbde3f83bbc732aeaU,
  0xbdb660303e08c824U, 0x3c732aeabe84fb78U, 0x3e4d2c35bf10617bU, 0xbd17fad2be272d81U,
  0xbcb66030be88c824U, 0xbebdf9873d88c824U, 0x3d88c8243d54c58dU, 0xbe3df987bd54c58dU,
  0x3cb66030bde3f83bU, 0x3d97fad2bd88c824U, 0xbe2ec6d8bdc592deU, 0xbe08c82400000000U,
  0xbda72d813e08c824U, 0xbe272d813dc592deU, 0x3dc592de3cf32aeaU, 0x3d3660303e88c824U,
  0x3d97fad2bde3f83bU, 0xbe4592de3e17fad2U, 0xbda72d81bf0c94cfU, 0xbdf32aeabd97fad2U,
  0xbec592debcf32aeaU, 0xbe17fad23d54c58dU, 0x3d732aeabecd2c35U, 0xbcf32aea3d88c824U,
  0x3e366030bbf32aeaU, 0xbcb66030bcf32aeaU, 0xbd366030bd54c58dU, 0xbc732aeabe2ec6d8U,
  0xbdd4c58d3e08c824U, 0x3dd4c58dbdd4c58dU, 0xbd54c58dbbf32aeaU, 0x3cb660303d97fad2U,
  0x3dc592debd366030U, 0xbd97fad2be812eccU, 0xbe1f942a3db66030U, 0x3d732aea3e8c94cfU,
  0x3dd4c58d3e08c824U, 0x3e88c824bd366030U, 0x3e3df987bee02b90U, 0xbd366030bd732aeaU,
  0x3e88c8243e2ec6d8U, 0x3d17fad2bc732aeaU, 0xbbf32aea3da72d81U, 0x3cb660303cf32aeaU,
  0xbc732aea3d17fad2U, 0x3e012eccbecd2c35U, 0xbe7ac441bc732aeaU, 0x3df32aeabe4d2c35U,
  0x3d732aeabe88c824U, 0x3d3660303c732aeaU, 0x3c732aea3cb66030U, 0x3cf32aea3d54c58dU,
  0xbda72d81bd88c824U, 0x3c732aea3e5c5ee4U, 0x3e272d81bd97fad2U, 0xbee02b903d88c824U,
  0x3df32aeabcb66030U, 0xbe90617b3bf32aeaU, 0xbe012ecc3d366030U, 0xbe1f942abda72d81U,
  0xbd17fad2be08c824U, 0xbc732aea3d732aeaU, 0xbcb660303d88c824U, 0xbe6b91933d54c58dU,
  0xbd88c824bd732aeaU, 0x3d17fad2be4d2c35U, 0xbe2ec6d8bf714494U, 0xbe272d81bbf32aeaU,
  0xbd366030bee3f83bU, 0xbe4592debdd4c58dU, 0xbe3df987bc732aeaU, 0xbd54c58d3d88c824U,
  0x3de3f83b3bf32aeaU, 0x3df32aea3e97fad2U, 0x3df32aea3df32aeaU, 0xbd54c58dbd97fad2U,
  0x3d261ac83e8f08d7U, 0xbe0a6ba63e013146U, 0x3d0131463ed68d42U, 0x3d4b0449bd261ac8U,
  0x3c13a607be0f08d7U, 0xbc5d790abe013146U, 0x3d261ac83dc1c9e9U, 0xbe4b0449be813146U,
  0xbe41c9e93dcb0449U, 0xbe0f08d73d8a6ba6U, 0x3daf55283d013146U, 0x3dcb0449be05ce76U,
  0x3e33f2583e881d0eU, 0xbdcb0449be2f5528U, 0x3da61ac8be5d790aU, 0x3e79282bbde6b36bU,
  0x3e5d790a3e2f5528U, 0x3e8cba3e3e93a607U, 0x3dc1c9e9beb3f258U, 0x3ecb04493e881d0eU,
  0xbd8131463e95f49fU, 0x3e013146bebade21U, 0x3e0131463d4b0449U, 0xbd93a607be05ce76U,
  0x3c5d790a3daf5528U, 0x3e0f08d7bcdd790aU, 0xbe6fedcb3dd43eaaU, 0x3d93a607bec41881U,
  0x3dc1c9e93e543eaaU, 0xbde6b36b3ed43eaaU, 0x3e05ce763d8a6ba6U, 0x3e184337bedb2a72U,
  0x3dcb04493de6b36bU, 0xbddd790abe4b0449U, 0xbd8a6ba63e543eaaU, 0x3e8cba3ebe2f5528U,
  0x3d8a6ba6bead0690U, 0x3c93a607bd13a607U, 0xbdefedcbbc5d790aU, 0xbe7dc55cbe95f49fU,
  0x3ddd790abdf9282bU, 0xbc93a6073ea17d97U, 0x3e85ce763b93a607U, 0x3daf55283daf5528U,
  0x3daf55283d6fedcbU, 0xbe05ce763dcb0449U, 0xbdefedcb3e5d790aU, 0xbe543eaa3dd43eaaU,
  0x3ea3cc2fbeaab7f8U, 0x3d261ac83e33f258U, 0x3d8131463e0a6ba6U, 0xbe261ac8be0f08d7U,
  0x3dc1c9e9be0f08d7U, 0xbdd43eaabcb88f88U, 0xbe7dc55cbe388f88U, 0xbef48afbbd6fedcbU,
  0x3e1ce067bdc1c9e9U, 0xbd4b04493d388f88U, 0x3e0a6ba63ddd790aU, 0xbdc1c9e9be62163aU,
  0xbe4667193d813146U, 0xbdefedcb3e58dbdaU, 0x3d5d790abe4fa17aU, 0xbd813146bde6b36bU,
  0xbe58dbdabe2ab7f8U, 0xbec4188100000000U, 0xbdb88f88bea61ac8U, 0xbe1ce067bd93a607U,
  0xbe66b36bbe184337U, 0x3d6fedcbbe0f08d7U, 0x3da61ac8be93a607U, 0xbdf9282b3d261ac8U,
  0xbe62163abe05ce76U, 0x3e261ac83cb88f88U, 0xbdc1c9e9bdcb0449U, 0xbe0a6ba63ea61ac8U,
  0xbd93a6073c13a607U, 0xbdb88f88be13a607U, 0xbdcb0449bc13a607U, 0x3e8f08d7bb93a607U,
  0x3e85ce76bc13a607U, 0xbe62163abe9ce067U, 0xbe0f08d73d5d790aU, 0x3e881d0ebe05ce76U,
  0x3e261ac83d261ac8U, 0x3e41c9e9bd8a6ba6U, 0x3ecb04493d5d790aU, 0xbe66b36b3eb88f88U,
  0xbd8131463d388f88U, 0xbd8a6ba63da61ac8U, 0x3e217d97bd388f88U, 0xbe0a6ba6beaf5528U,
  0x3e217d973e05ce76U, 0xbd6fedcbbe0f08d7U, 0xbd8131463c13a607U, 0x3e466719bd5d790aU,
  0xbeb3f258bd93a607U, 0x3ecd52e1bd5d790aU, 0xbe2f55283d261ac8U, 0xbe95f49f3e91576fU,
  0x3e79282bbe5d790aU, 0x3ee6b36b3de6b36bU, 0xbf0b92f23d8a6ba6U, 0x3e543eaabe0f08d7U,
  0x3e33f258be41c9e9U, 0x3c93a607be13a607U, 0xbe8cba3e3e95f49fU, 0x3e217d973d013146U,
  0xbc13a607be2ab7f8U, 0x3dd43eaa3e543eaaU, 0x3e388f88be8cba3eU, 0xbdcb04493c13a607U,
  0x3b93a6073e13a607U, 0x3c93a607bd93a607U, 0xbd388f883ec41881U, 0x3d4b04493d9ce067U,
  0x3d9ce0673e466719U, 0xbdc1c9e9be4fa17aU, 0x3dc1c9e9be5d790aU, 0x3ea869603e813146U,
  0xbdc1c9e9be79282bU, 0xbdefedcbbe1ce067U, 0xbe543eaabf127ebbU, 0xbe05ce763e33f258U,
  0x3defedcbbdc1c9e9U, 0x3d13a607beb1a3c0U, 0x3d813146be05ce76U, 0x3d388f88be5d790aU,
  0xbdb88f883cb88f88U, 0xbe0131463ebade21U, 0x3ec8b5b13d5d790aU, 0x3e33f2583db88f88U,
  0xbe2f5528bdc1c9e9U, 0xbf0a6ba63f081d0eU, 0x3ecd52e1bead0690U, 0xbefdc55c3e0a6ba6U,
  0xbe9843373e9f2effU, 0xbe79282b3da61ac8U, 0x3de6b36bbd13a607U, 0xbd8a6ba6bd9ce067U,
  0x3daf5528bd4b0449U, 0xbdc1c9e93b93a607U, 0xbd261ac83e0f08d7U, 0x3d013146bf04a72aU,
  0x3dcb04493cdd790aU, 0x3e85ce763e543eaaU, 0x3eb88f883e8f08d7U, 0x3d013146be543eaaU,
  0x3e58dbdabecfa17aU, 0xbd5d790a3e05ce76U, 0xbe0131463d388f88U, 0x3c5d790abeb640f0U,
  0x3ee6b36b3e881d0eU, 0x3ec8b5b13ebf7b51U, 0x3e388f883e261ac8U, 0x3e58dbda3c5d790aU,
  0x3cdd790a3d9ce067U, 0xbe0a6ba63d388f88U, 0xbcb88f883ec66719U, 0xbdaf5528be1ce067U,
  0x3dbb4d613ea9be1fU, 0xbcbb4d613e069f9dU, 0x3e4702373f1e0949U, 0x3e80c5323e80c532U,
  0xbe1e09493e3b4d61U, 0xbe5891783e3572f5U, 0x3e8f673e3d982edeU, 0x3e7baffa3cea20b9U,
  0xbe6ffb243e8f673eU, 0x3e0c7a083dbb4d61U, 0xbdd2b70dbd80c532U, 0xbe9541a93f0f673eU,
  0x3e4127cc3e589178U, 0xbe5e6be3be64464eU, 0xbec127ccbe23e3b4U, 0xbdaf988aU,
  0x3e29be1fbe9541a9U, 0x3e9b1c143eccdca2U, 0x3e1e0949bea0f67fU, 0xbd6a20b93daf988aU,
  0xbbbb4d613df5d58fU, 0xbe52b70dbea3e3b4U, 0x3e5891783e29be1fU, 0x3eb572f5bbbb4d61U,
  0xbdde6be33e23e3b4U, 0x3e925473bd0c7a08U, 0xbd23e3b43dd2b70dU, 0x3d80c5323e589178U,
  0x3c8c7a08be7baffaU, 0x3e0c7a083e8f673eU, 0xbdaf988a3e23e3b4U, 0xbe64464ebe00c532U,
  0x3dd2b70dbbbb4d61U, 0xbd80c532be83b268U, 0xbe3b4d613d6a20b9U, 0x3e069f9dbe4127ccU,
  0xbbbb4d613dea20b9U, 0x3e5e6be33daf988aU, 0xbe00c532bc3b4d61U, 0xbd3b4d61bdaf988aU,
  0x3cea20b9U, 0xbbbb4d613e00c532U, 0xbd982ede3e64464eU, 0xbeb8602bbd52b70dU,
  0x3d52b70dbeb572f5U, 0xbd982edebd3b4d61U, 0x3eb8602b3d6a20b9U, 0xbdd2b70d3da3e3b4U,
  0xbd23e3b43e5e6be3U, 0xbdaf988abcea20b9U, 0x3e069f9dbd0c7a08U, 0x3d8c7a083df5d58fU,
  0x3c8c7a08be182edeU, 0xbd3b4d61be0c7a08U, 0x3c3b4d61becfc9d7U, 0x3d52b70dbe6a20b9U,
  0x3c8c7a083e5e6be3U, 0xbe75d58f3e2f988aU, 0xbe64464ebea0f67fU, 0x3cea20b93cbb4d61U,
  0x3e1e0949bc3b4d61U, 0x3e1e09493d3b4d61U, 0x3da3e3b4be3572f5U, 0x3c8c7a08be3b4d61U,
  0xbe470237be00c532U, 0x3d3b4d61bdaf988aU, 0xbe125473U, 0xbc8c7a083e80c532U,
  0xbe182edebe3b4d61U, 0xbe4702373cbb4d61U, 0xbbbb4d61be23e3b4U, 0xbea3e3b43d3b4d61U,
  0xbe0c7a08bd23e3b4U, 0x3e3572f5bc3b4d61U, 0xbdaf988abea0f67fU, 0x3e29be1f3e52b70dU,
  0x3dc702373c3b4d61U, 0xbe5e6be3be29be1fU, 0xbe4127ccbedb7eadU, 0x3dd2b70dbd0c7a08U,
  0x3e8c7a083e2f988aU, 0xbd0c7a08bc3b4d61U, 0xbd80c532be069f9dU, 0x3da3e3b43e589178U,
  0xbd8c7a083dea20b9U, 0xbe869f9d3e069f9dU, 0x3df5d58fbd80c532U, 0xbe069f9dbd3b4d61U,
  0xbe6ffb243cea20b9U, 0xbd6a20b9bd23e3b4U, 0x3e75d58fbe23e3b4U, 0x3df5d58fbd3b4d61U,
  0xbd52b70d3e0c7a08U, 0xbe182edebe069f9dU, 0xbbbb4d613cbb4d61U, 0xbe0c7a083e3572f5U,
  0xbd3b4d61bdde6be3U, 0x3daf988abf03b268U, 0x3ea6d0eabdbb4d61U, 0x3e7baffa3e29be1fU,
  0xbe9254733d3b4d61U, 0xbda3e3b43e470237U, 0x3d8c7a08bc3b4d61U, 0x3c3b4d61bcea20b9U,
  0xbd982ede3d0c7a08U, 0x3dea20b93cbb4d61U, 0x3e4cdca23ea3e3b4U, 0xbe9e0949be0c7a08U,
  0xbc8c7a083ea6d0eaU, 0xbe5e6be3be069f9dU, 0xbdde6be33e125473U, 0xbe6a20b9bda3e3b4U,
  0x3e8c7a08beacab55U, 0xbe00c532bdc70237U, 0xbdf5d58f3e898cd3U, 0xbe29be1fbe2f988aU,
  0xbe64464ebe869f9dU, 0x3d3b4d61be125473U, 0x3d6a20b9bf39d6c6U, 0xbe9254733d52b70dU,
  0xbd982ede3e80c532U, 0xbf2f988abe23e3b4U, 0xbef8c2c43ec70237U, 0xbdde6be3bd982edeU,
  0xbe8c7a08bdc70237U, 0xbdd2b70d3ef2e859U, 0xbbbb4d613dd2b70dU, 0x3d8c7a08be29be1fU,
  0xbdf5d58fbeb8602bU, 0x3df5d58fbda3e3b4U, 0xbdea20b9be9541a9U, 0xbefe9d2f3e00c532U,
  0xbdea20b9bed5a442U, 0xbdea20b9be869f9dU, 0x3dbb4d613d23e3b4U, 0xbd3b4d61bf00c532U,
  0xbdf5d58f3d6a20b9U, 0x3d80c532bec41501U, 0xbd0c7a083e589178U, 0x3e80c532bdde6be3U,
  0xbeacab55beb8602bU, 0x3dc702373e125473U, 0xbdbb4d613bbb4d61U, 0x3e182ede3cea20b9U,
  0x3e0c7a083cea20b9U, 0xbdf5d58fbec41501U, 0xbe83b2683e125473U, 0xbe3572f5be9b1c14U,
  0x3f226d1a3d6a20b9U, 0x3e4cdca23e1e0949U, 0x3ebe3a96be589178U, 0xbe6a20b93e9e0949U,
  0x3e6ffb24be182edeU, 0x3d6a20b93f0c7a08U, 0xbe52b70dbdaf988aU, 0xbe7baffa3e589178U,
  0x3eaf988abe6a20b9U, 0x3d52b70dbede6be3U, 0xbe125473beaf988aU, 0xbe7baffa3efbaffaU,
  0x3bb2741a3d32741aU, 0xbe755fa43cdf1121U, 0x3e0b6ab43e004373U, 0xbcdf11213d85d714U,
  0x3eb2741a3c32741aU, 0x3d1c25973e7af345U, 0x3c85d714bd05d714U, 0x3e05d7143ec5f8cdU,
  0xbd755fa4bd90fe55U, 0x3d9c25973cb2741aU, 0x3cb2741abdea3862U, 0x3dbd9b5cbdea3862U,
  0x3e9691f6beed0233U, 0xbc85d7143d755fa4U, 0xbc32741a3e432efdU, 0x3ed1200f3e93c826U,
  0xbe1691f63ea74cd8U, 0x3e53e9df3e64a4c1U, 0x3cdf1121bd05d714U, 0x3f310f323e274cd8U,
  0xbd5f11213eb53debU, 0xbe0b6ab43e85d714U, 0xbe7af3453d5f1121U, 0xbddf1121be0b6ab4U,
  0x3ea1b9383e21b938U, 0x3e85d7143e10fe55U, 0x3e432efdbd9c2597U, 0x3dea3862be6a3862U,
  0xbe5f11213ebad18bU, 0xbd32741abdbd9b5cU, 0xbcdf1121bdbd9b5cU, 0xbf004373bbb2741aU,
  0xbe05d7143e10fe55U, 0xbe53e9df3c85d714U, 0xbd48c29d3e05d714U, 0xbd755fa4bcdf1121U,
  0xbe53e9dfbdbd9b5cU, 0x3d48c29dbd32741aU, 0x3e21b9383e6fcc03U, 0x3d32741abe1c2597U,
  0x3d1c25973d5f1121U, 0xbd48c29dbd9c2597U, 0xbe2ce0793ddf1121U, 0xbe53e9dfbdb2741aU,
  0x3df55fa43dc8c29dU, 0x3e1c25973dc8c29dU, 0xbe1c2597beace079U, 0xbe9691f63cb2741aU,
  0xbcdf1121bd32741aU, 0x3d755fa43bb2741aU, 0x3dc8c29dbe05d714U, 0xbbb2741a3e830d43U,
  0x3e8b6ab43df55fa4U, 0x3e64a4c1be53e9dfU, 0x3ecb8c6ebe3d9b5cU, 0x3c32741abd5f1121U,
  0x3d48c29dbd48c29dU, 0xbf0a05ccbdb2741aU, 0xbf2483083bb2741aU, 0x3e6a3862bea1b938U,
  0x3da74cd83d1c2597U, 0x3db2741abbb2741aU, 0xbe1c25973d85d714U, 0xbc32741a3e4e563eU,
  0x3ea1b9383e05d714U, 0xbe32741a3e93c826U, 0x3e7af345U, 0x3e64a4c1bebd9b5cU,
  0x3cb2741a3e0b6ab4U, 0x3c85d714bd05d714U, 0xbe804373be2ce079U, 0xbe32741abc85d714U,
  0x3d48c29dbe004373U, 0xbd5f11213e755fa4U, 0x3da74cd83e21b938U, 0xbd5f1121bd32741aU,
  0x3d32741abe05d714U, 0xbddf11213bb2741aU, 0x3e3807bbbbb2741aU, 0x3c32741a3db2741aU,
  0xbd32741a3e004373U, 0x3e7af3453e0b6ab4U, 0xbd1c25973ddf1121U, 0xbebad18bbe004373U,
  0x3e8e3485bd9c2597U, 0x3d32741abeafaa4aU, 0xbe6fcc033e10fe55U, 0x3d32741abd05d714U,
  0x3e05d7143d32741aU, 0x3e48c29d3bb2741aU, 0x3ec5f8cdbc32741aU, 0x3d85d7143cdf1121U,
  0x3ea74cd8beb53debU, 0x3e32741a3dea3862U, 0x3e004373bddf1121U, 0x3dea38623d5f1121U,
  0x3cb2741abbb2741aU, 0xbc32741abdea3862U, 0x3db2741abe85d714U, 0x3e597d80bd85d714U,
  0xbbb2741a3e32741aU, 0xbe21b9383e2ce079U, 0x3eefcc03bcb2741aU, 0x3dea3862bcdf1121U,
  0xbe4e563e3c32741aU, 0xbe10fe553d755fa4U, 0xbdb2741abd85d714U, 0xbd48c29dbe004373U,
  0x3bb2741a3e32741aU, 0x3d9c2597bd1c2597U, 0xbd32741abe004373U, 0xbeb53deb3da74cd8U,
  0x3eea3862bd32741aU, 0xbd85d714bdc8c29dU, 0xbd9c2597bcdf1121U, 0x3e995bc63d48c29dU,
  0xbd9c25973d32741aU, 0xbe5f1121bea48308U, 0x3eb53debbe274cd8U, 0xbe32741a3c85d714U,
  0x3d90fe553e3807bbU, 0xbd32741a3ddf1121U, 0xbed3e9df3e05d714U, 0x3d85d7143e21b938U,
  0xbe5f11213e9691f6U, 0xbe274cd8be5f1121U, 0x3e3807bbU, 0x3e05d714U,
  0x3d755fa4bcb2741aU, 0xbd32741a3d1c2597U, 0xbe88a0e43e1c2597U, 0xbeafaa4a3d5f1121U,
  0xbd05d714bdb2741aU, 0x3e53e9dfbf030d43U, 0xbebad18b3d755fa4U, 0x3ea74cd8be274cd8U,
  0x3e88a0e43d5f1121U, 0xbdc8c29dbe48c29dU, 0xbdf55fa43d755fa4U, 0x3d05d714be53e9dfU,
  0xbe004373bece563eU, 0x3eefcc033e64a4c1U, 0x3d90fe55be8b6ab4U, 0x3d05d7143d85d714U,
  0xbee4a4c1bd9c2597U, 0x3d05d71400000000U, 0xbe830d43bee76e92U, 0xbf21b938be05d714U,
  0xbcb2741a3eea3862U, 0x3ea1b9383dd3e9dfU, 0xbd85d714be7af345U, 0x3eaa16a9bec0652cU,
  0xbe755fa4be6fcc03U, 0xbdbd9b5cbe8e3485U, 0xbe8b6ab4be597d80U, 0xbe3d9b5cbc32741aU,
  0x3d05d714be6a3862U, 0xbc32741abe10fe55U, 0x3d85d714be90fe55U, 0x3e1c25973da74cd8U,
  0x3e9b84bb3c9b84bbU, 0xbe0e8f00bdf63cd2U, 0x3bcf5ba33e763cd2U, 0x3ccf5ba3beb8ad9dU,
  0xbd35702fbe62cc3bU, 0x3bcf5ba3bebf287bU, 0xbdf63cd2bc9b84bbU, 0xbe91cc6f3e1b84bbU,
  0x3dcf5ba33e1509ddU, 0xbe3beb0c3db5702fU, 0xbe8b51923d35702fU, 0x3e21ff98bea87a75U,
  0xbd819946bc4f5ba3U, 0x3e4f5ba3be0e8f00U, 0x3ccf5ba33bcf5ba3U, 0x3d6947183e763cd2U,
  0x3db5702fbe287a75U, 0x3e55d6803d35702fU, 0x3c4f5ba33e1509ddU, 0xbe819946bd9b84bbU,
  0x3e8199463eb232c0U, 0x3d35702f3d9b84bbU, 0x3da87a75bc9b84bbU, 0xbea1ff98bedc515eU,
  0xbd4f5ba3be35702fU, 0xbccf5ba33da87a75U, 0xbe9b84bbbe4f5ba3U, 0xbdb5702f3e1b84bbU,
  0x3e1509ddbd35702fU, 0xbd0199463ccf5ba3U, 0x3de94718bea87a75U, 0x3df63cd23eb5702fU,
  0xbe8814233bcf5ba3U, 0x3e2ef552be55d680U, 0xbd35702fbc4f5ba3U, 0xbe1509dd3d819946U,
  0xbdc265e9be1509ddU, 0x3e819946be8e8f00U, 0xbe62cc3b3c9b84bbU, 0xbd019946bd819946U,
  0xbe98474c3e4265e9U, 0x3dcf5ba33d1b84bbU, 0xbde94718bddc515eU, 0xbd819946bea53d06U,
